unsigned char sine_model_data[] = {
  0x20, 0x00, 0x00, 0x00, 0x54, 0x46, 0x4c, 0x33, 0x00, 0x00, 0x00, 0x00,
  0x14, 0x00, 0x20, 0x00, 0x1c, 0x00, 0x18, 0x00, 0x14, 0x00, 0x10, 0x00,
  0x0c, 0x00, 0x00, 0x00, 0x08, 0x00, 0x04, 0x00, 0x14, 0x00, 0x00, 0x00,
  0x1c, 0x00, 0x00, 0x00, 0x98, 0x00, 0x00, 0x00, 0x18, 0x01, 0x00, 0x00,
  0x5c, 0x16, 0x00, 0x00, 0x6c, 0x16, 0x00, 0x00, 0xd4, 0x28, 0x00, 0x00,
  0x03, 0x00, 0x00, 0x00, 0x01, 0x00, 0x00, 0x00, 0x10, 0x00, 0x00, 0x00,
  0x00, 0x00, 0x0a, 0x00, 0x10, 0x00, 0x0c, 0x00, 0x08, 0x00, 0x04, 0x00,
  0x0a, 0x00, 0x00, 0x00, 0x0c, 0x00, 0x00, 0x00, 0x1c, 0x00, 0x00, 0x00,
  0x3c, 0x00, 0x00, 0x00, 0x0f, 0x00, 0x00, 0x00, 0x73, 0x65, 0x72, 0x76,
  0x69, 0x6e, 0x67, 0x5f, 0x64, 0x65, 0x66, 0x61, 0x75, 0x6c, 0x74, 0x00,
  0x01, 0x00, 0x00, 0x00, 0x04, 0x00, 0x00, 0x00, 0x68, 0xff, 0xff, 0xff,
  0x09, 0x00, 0x00, 0x00, 0x04, 0x00, 0x00, 0x00, 0x08, 0x00, 0x00, 0x00,
  0x6f, 0x75, 0x74, 0x70, 0x75, 0x74, 0x5f, 0x30, 0x00, 0x00, 0x00, 0x00,
  0x01, 0x00, 0x00, 0x00, 0x04, 0x00, 0x00, 0x00, 0x36, 0xea, 0xff, 0xff,
  0x04, 0x00, 0x00, 0x00, 0x0d, 0x00, 0x00, 0x00, 0x69, 0x6e, 0x70, 0x75,
  0x74, 0x5f, 0x6c, 0x61, 0x79, 0x65, 0x72, 0x5f, 0x37, 0x00, 0x00, 0x00,
  0x03, 0x00, 0x00, 0x00, 0x5c, 0x00, 0x00, 0x00, 0x2c, 0x00, 0x00, 0x00,
  0x04, 0x00, 0x00, 0x00, 0xb8, 0xff, 0xff, 0xff, 0x0d, 0x00, 0x00, 0x00,
  0x04, 0x00, 0x00, 0x00, 0x13, 0x00, 0x00, 0x00, 0x43, 0x4f, 0x4e, 0x56,
  0x45, 0x52, 0x53, 0x49, 0x4f, 0x4e, 0x5f, 0x4d, 0x45, 0x54, 0x41, 0x44,
  0x41, 0x54, 0x41, 0x00, 0xdc, 0xff, 0xff, 0xff, 0x0c, 0x00, 0x00, 0x00,
  0x04, 0x00, 0x00, 0x00, 0x13, 0x00, 0x00, 0x00, 0x6d, 0x69, 0x6e, 0x5f,
  0x72, 0x75, 0x6e, 0x74, 0x69, 0x6d, 0x65, 0x5f, 0x76, 0x65, 0x72, 0x73,
  0x69, 0x6f, 0x6e, 0x00, 0x08, 0x00, 0x0c, 0x00, 0x08, 0x00, 0x04, 0x00,
  0x08, 0x00, 0x00, 0x00, 0x0b, 0x00, 0x00, 0x00, 0x04, 0x00, 0x00, 0x00,
  0x13, 0x00, 0x00, 0x00, 0x6d, 0x69, 0x6e, 0x5f, 0x72, 0x75, 0x6e, 0x74,
  0x69, 0x6d, 0x65, 0x5f, 0x76, 0x65, 0x72, 0x73, 0x69, 0x6f, 0x6e, 0x00,
  0x0e, 0x00, 0x00, 0x00, 0x40, 0x15, 0x00, 0x00, 0x38, 0x15, 0x00, 0x00,
  0x24, 0x15, 0x00, 0x00, 0xcc, 0x14, 0x00, 0x00, 0xbc, 0x13, 0x00, 0x00,
  0xac, 0x03, 0x00, 0x00, 0x9c, 0x02, 0x00, 0x00, 0xcc, 0x00, 0x00, 0x00,
  0xc4, 0x00, 0x00, 0x00, 0xbc, 0x00, 0x00, 0x00, 0xb4, 0x00, 0x00, 0x00,
  0x94, 0x00, 0x00, 0x00, 0x74, 0x00, 0x00, 0x00, 0x04, 0x00, 0x00, 0x00,
  0x12, 0xeb, 0xff, 0xff, 0x04, 0x00, 0x00, 0x00, 0x60, 0x00, 0x00, 0x00,
  0x0c, 0x00, 0x00, 0x00, 0x08, 0x00, 0x0e, 0x00, 0x08, 0x00, 0x04, 0x00,
  0x08, 0x00, 0x00, 0x00, 0x10, 0x00, 0x00, 0x00, 0x28, 0x00, 0x00, 0x00,
  0x00, 0x00, 0x06, 0x00, 0x08, 0x00, 0x04, 0x00, 0x06, 0x00, 0x00, 0x00,
  0x04, 0x00, 0x00, 0x00, 0x01, 0x00, 0x00, 0x00, 0xeb, 0x03, 0x00, 0x00,
  0x0c, 0x00, 0x18, 0x00, 0x14, 0x00, 0x10, 0x00, 0x0c, 0x00, 0x04, 0x00,
  0x0c, 0x00, 0x00, 0x00, 0x0b, 0x25, 0x4a, 0x9b, 0xab, 0x2e, 0x52, 0xca,
  0x02, 0x00, 0x00, 0x00, 0x02, 0x00, 0x00, 0x00, 0x04, 0x00, 0x00, 0x00,
  0x06, 0x00, 0x00, 0x00, 0x32, 0x2e, 0x31, 0x38, 0x2e, 0x30, 0x00, 0x00,
  0x7e, 0xeb, 0xff, 0xff, 0x04, 0x00, 0x00, 0x00, 0x10, 0x00, 0x00, 0x00,
  0x00, 0x00, 0x00, 0x00, 0x00, 0x00, 0x00, 0x00, 0x00, 0x00, 0x00, 0x00,
  0x00, 0x00, 0x00, 0x00, 0x9a, 0xeb, 0xff, 0xff, 0x04, 0x00, 0x00, 0x00,
  0x10, 0x00, 0x00, 0x00, 0x31, 0x2e, 0x31, 0x34, 0x2e, 0x30, 0x00, 0x00,
  0x00, 0x00, 0x00, 0x00, 0x00, 0x00, 0x00, 0x00, 0x24, 0xeb, 0xff, 0xff,
  0x28, 0xeb, 0xff, 0xff, 0x2c, 0xeb, 0xff, 0xff, 0xc2, 0xeb, 0xff, 0xff,
  0x04, 0x00, 0x00, 0x00, 0xc0, 0x01, 0x00, 0x00, 0x74, 0x5d, 0x81, 0x86,
  0x64, 0x4e, 0x07, 0x14, 0xea, 0xca, 0x20, 0x81, 0xe8, 0x7a, 0x91, 0x62,
  0x4f, 0x81, 0xbc, 0x35, 0xb6, 0x32, 0x6b, 0x73, 0x7a, 0x7f, 0xd3, 0xd9,
  0x2d, 0x56, 0x31, 0x6a, 0xe4, 0x7f, 0x2c, 0xd7, 0x2b, 0x75, 0x7f, 0x0f,
  0x60, 0xa1, 0xeb, 0xc2, 0xca, 0xf8, 0xbb, 0x81, 0x07, 0xcf, 0xd1, 0x67,
  0xc4, 0xca, 0xd9, 0x7f, 0x2f, 0xe5, 0x4f, 0xb3, 0x81, 0xe5, 0x4f, 0xa8,
  0x86, 0xd2, 0x7f, 0x31, 0xf3, 0x25, 0xbd, 0x95, 0x57, 0xa5, 0xd3, 0x2c,
  0x7f, 0x8a, 0x52, 0xbb, 0x33, 0xbb, 0x7f, 0xce, 0x81, 0x67, 0x32, 0x11,
  0xf1, 0x38, 0x89, 0x6c, 0x6e, 0x8e, 0x81, 0xd6, 0xc3, 0x7c, 0x49, 0xab,
  0x0d, 0x7f, 0x51, 0xa8, 0x28, 0xa2, 0xc7, 0x1e, 0x55, 0xd9, 0x81, 0x16,
  0xf5, 0x07, 0x15, 0xde, 0x26, 0xa8, 0x7f, 0x77, 0x7d, 0x13, 0x42, 0x4f,
  0x77, 0x7f, 0x81, 0x08, 0xc2, 0x45, 0x07, 0x3e, 0xe9, 0x81, 0xad, 0x0c,
  0x0b, 0xfb, 0xfc, 0xc2, 0x1a, 0xde, 0x21, 0xbf, 0x11, 0x7f, 0x82, 0x2d,
  0x0e, 0xec, 0xf0, 0x44, 0xfe, 0x81, 0xef, 0x7f, 0x11, 0x1d, 0xd9, 0xf8,
  0xf1, 0x02, 0x0a, 0x06, 0xe9, 0x09, 0xd1, 0x7f, 0xd6, 0xde, 0x9d, 0x60,
  0xc2, 0x44, 0x7f, 0x36, 0xff, 0xd4, 0x41, 0x68, 0x34, 0x81, 0x25, 0x81,
  0x68, 0xf7, 0x83, 0xf0, 0x55, 0x42, 0x60, 0xf7, 0x81, 0x03, 0x1d, 0x4f,
  0xdd, 0x81, 0x0f, 0xe8, 0x08, 0x29, 0xec, 0xd1, 0x90, 0x38, 0x2c, 0x7f,
  0x00, 0xb4, 0xdb, 0x12, 0xf8, 0xb1, 0x5c, 0x1a, 0x81, 0xe5, 0x58, 0xda,
  0xd9, 0xd5, 0xe4, 0x81, 0xef, 0x81, 0x33, 0x2e, 0x56, 0x29, 0x53, 0x25,
  0xd4, 0xb5, 0x5b, 0x0d, 0x49, 0x81, 0xc7, 0x10, 0x52, 0x1f, 0xce, 0xdf,
  0x81, 0xde, 0xda, 0x34, 0x0d, 0xeb, 0x60, 0x81, 0x91, 0x97, 0x7a, 0x3c,
  0x3c, 0xb7, 0x7f, 0xf7, 0xec, 0xc7, 0xf3, 0x81, 0x84, 0x39, 0xec, 0x36,
  0xc7, 0x20, 0x7f, 0xe8, 0xf9, 0x51, 0x22, 0x7f, 0x4b, 0x77, 0xcc, 0x38,
  0x85, 0x57, 0x25, 0x53, 0x18, 0xc9, 0x7f, 0x39, 0x26, 0x9d, 0xe5, 0x07,
  0xcb, 0x7f, 0xb8, 0xc9, 0xbf, 0x84, 0xfd, 0x7f, 0x07, 0xed, 0x7f, 0x13,
  0x46, 0x22, 0x25, 0xd7, 0xcf, 0x38, 0x20, 0xa5, 0x01, 0x78, 0x81, 0x47,
  0xc0, 0x81, 0x1d, 0xde, 0x10, 0xdc, 0xb8, 0xc0, 0x7f, 0x31, 0x6d, 0xe7,
  0x86, 0xd1, 0x62, 0x12, 0xe5, 0xbf, 0x81, 0xe1, 0x0c, 0x82, 0x33, 0x15,
  0xb6, 0x81, 0xcd, 0x7f, 0x22, 0x45, 0x29, 0xd8, 0xa1, 0x12, 0x6b, 0x9d,
  0xd2, 0x41, 0x7f, 0x3b, 0x10, 0xf1, 0x79, 0x7f, 0x9f, 0x68, 0x0a, 0x23,
  0x21, 0xff, 0xbf, 0x07, 0xc9, 0x4e, 0x81, 0x7f, 0xb1, 0x2a, 0xb7, 0xf3,
  0xc4, 0x1b, 0xc4, 0xe4, 0xf1, 0xd3, 0x35, 0x6b, 0x81, 0x11, 0xe7, 0x20,
  0xd6, 0x1e, 0x34, 0x81, 0x93, 0xba, 0x18, 0xcf, 0x81, 0x86, 0x9d, 0x05,
  0x32, 0x26, 0xb0, 0x29, 0x68, 0x81, 0xd6, 0x81, 0x44, 0xa5, 0xf6, 0x56,
  0xf9, 0x0a, 0xca, 0x1a, 0x7f, 0xde, 0xaa, 0x00, 0xe5, 0x5c, 0xc7, 0xcf,
  0x1b, 0x77, 0x81, 0x00, 0xf6, 0xbc, 0x7f, 0x6f, 0x74, 0xf0, 0xbb, 0x14,
  0xe7, 0xac, 0x81, 0x6a, 0xf3, 0xac, 0x0e, 0x9b, 0x0d, 0xb9, 0xc2, 0x81,
  0x8e, 0xed, 0xff, 0xff, 0x04, 0x00, 0x00, 0x00, 0x00, 0x01, 0x00, 0x00,
  0xea, 0xfb, 0xff, 0xff, 0x75, 0x04, 0x00, 0x00, 0x48, 0x0d, 0x00, 0x00,
  0x1a, 0x0e, 0x00, 0x00, 0x66, 0xd5, 0xff, 0xff, 0x8e, 0x04, 0x00, 0x00,
  0xae, 0x11, 0x00, 0x00, 0xf9, 0x10, 0x00, 0x00, 0x3b, 0xe1, 0xff, 0xff,
  0xac, 0xf3, 0xff, 0xff, 0x36, 0xfd, 0xff, 0xff, 0xe0, 0x09, 0x00, 0x00,
  0xa3, 0x0e, 0x00, 0x00, 0x1b, 0x02, 0x00, 0x00, 0x42, 0x03, 0x00, 0x00,
  0x89, 0x12, 0x00, 0x00, 0xcd, 0xfd, 0xff, 0xff, 0xc4, 0xef, 0xff, 0xff,
  0x36, 0x14, 0x00, 0x00, 0xa9, 0x04, 0x00, 0x00, 0x6d, 0x10, 0x00, 0x00,
  0x23, 0x24, 0x00, 0x00, 0x11, 0xd5, 0xff, 0xff, 0xb7, 0x06, 0x00, 0x00,
  0x67, 0xff, 0xff, 0xff, 0x47, 0xf7, 0xff, 0xff, 0x94, 0xfd, 0xff, 0xff,
  0xa7, 0xe2, 0xff, 0xff, 0xc2, 0xf0, 0xff, 0xff, 0x0f, 0xf7, 0xff, 0xff,
  0x6b, 0x11, 0x00, 0x00, 0x52, 0xf2, 0xff, 0xff, 0x06, 0xf4, 0xff, 0xff,
  0xab, 0x11, 0x00, 0x00, 0xaf, 0x01, 0x00, 0x00, 0xfc, 0x08, 0x00, 0x00,
  0x28, 0x02, 0x00, 0x00, 0x43, 0x00, 0x00, 0x00, 0x07, 0x08, 0x00, 0x00,
  0xa5, 0xec, 0xff, 0xff, 0xf7, 0xfe, 0xff, 0xff, 0x00, 0x11, 0x00, 0x00,
  0x7e, 0xf8, 0xff, 0xff, 0xd5, 0xfd, 0xff, 0xff, 0x50, 0x1b, 0x00, 0x00,
  0x9b, 0x0f, 0x00, 0x00, 0x8b, 0xfa, 0xff, 0xff, 0x6d, 0xd9, 0xff, 0xff,
  0xf8, 0xef, 0xff, 0xff, 0x4a, 0xed, 0xff, 0xff, 0xa1, 0xe4, 0xff, 0xff,
  0xab, 0xf5, 0xff, 0xff, 0x3e, 0x2f, 0x00, 0x00, 0x17, 0xee, 0xff, 0xff,
  0xa7, 0xf6, 0xff, 0xff, 0x37, 0x00, 0x00, 0x00, 0x43, 0xf1, 0xff, 0xff,
  0xe4, 0x18, 0x00, 0x00, 0x4f, 0xf0, 0xff, 0xff, 0x75, 0xe9, 0xff, 0xff,
  0x51, 0x14, 0x00, 0x00, 0x5f, 0xd6, 0xff, 0xff, 0xc5, 0x08, 0x00, 0x00,
  0x9a, 0xf0, 0xff, 0xff, 0x9a, 0xee, 0xff, 0xff, 0x04, 0x00, 0x00, 0x00,
  0x00, 0x10, 0x00, 0x00, 0xf2, 0x0c, 0x81, 0xee, 0xc2, 0x1b, 0x20, 0x1b,
  0xd2, 0x22, 0xec, 0x16, 0x0c, 0xdc, 0xed, 0xfa, 0x53, 0x0f, 0xde, 0xda,
  0xb6, 0x1e, 0xc6, 0xf3, 0xf4, 0xc0, 0x36, 0xdf, 0x29, 0x38, 0xf1, 0xdc,
  0x01, 0x01, 0x15, 0xef, 0x12, 0x39, 0x39, 0xfd, 0xe2, 0x16, 0x0e, 0xe1,
  0xe6, 0x26, 0x06, 0xd0, 0xfb, 0xeb, 0xee, 0xdf, 0xe6, 0x64, 0xcd, 0x16,
  0xfa, 0xa6, 0x82, 0x58, 0xaa, 0x2b, 0xd1, 0x1f, 0xf3, 0xf8, 0x42, 0xfc,
  0x0d, 0x20, 0xf8, 0x02, 0xe2, 0x03, 0xf2, 0xc3, 0xed, 0xe4, 0xf0, 0x14,
  0xe8, 0xf5, 0x03, 0xdd, 0x81, 0xfc, 0x36, 0x0f, 0xec, 0xbd, 0xe3, 0xe9,
  0x34, 0xf3, 0xbc, 0xfe, 0xef, 0xd3, 0x05, 0x0a, 0x0b, 0x2e, 0x2c, 0x2e,
  0xeb, 0x1c, 0x36, 0xea, 0xbe, 0x02, 0x02, 0x25, 0x17, 0x24, 0x0a, 0xdf,
  0x0c, 0xd6, 0x24, 0xed, 0xf0, 0xfe, 0x3c, 0xcc, 0xd8, 0x2c, 0x0f, 0x07,
  0xf9, 0x09, 0xfe, 0xe7, 0xf6, 0x08, 0x0d, 0xca, 0x04, 0xed, 0x02, 0xdc,
  0xe1, 0x0a, 0x39, 0xe3, 0x7f, 0xee, 0xfc, 0xf0, 0x49, 0xfc, 0xc9, 0x35,
  0xd5, 0x09, 0x07, 0x11, 0x32, 0xef, 0xc5, 0xe4, 0x13, 0xde, 0x0a, 0xa1,
  0x20, 0xe1, 0x30, 0x15, 0x00, 0x15, 0xef, 0x05, 0xaf, 0xe5, 0xb9, 0x2a,
  0xf2, 0x19, 0x15, 0xe5, 0x22, 0xf2, 0x25, 0xd2, 0x16, 0x07, 0xc2, 0xb9,
  0x4e, 0x1c, 0x15, 0xdd, 0x4f, 0x35, 0x7f, 0x17, 0x6c, 0xdb, 0xd5, 0xeb,
  0x45, 0x0d, 0x04, 0x17, 0x26, 0x1f, 0x15, 0xfb, 0x91, 0x34, 0xe1, 0xe4,
  0xfb, 0xf3, 0xb7, 0xd5, 0xe4, 0xbc, 0xd4, 0x33, 0xf9, 0xe6, 0xc7, 0xc7,
  0xe3, 0x26, 0x0c, 0x05, 0x14, 0x10, 0xd1, 0xee, 0xed, 0x2c, 0x3b, 0x0a,
  0xa2, 0x32, 0xeb, 0xe0, 0x25, 0x1e, 0x04, 0x07, 0xf0, 0x1d, 0xd2, 0x0e,
  0x11, 0x43, 0xf7, 0x9f, 0x2e, 0x19, 0x0e, 0xcf, 0xf9, 0x08, 0xfd, 0x1f,
  0x49, 0xef, 0x32, 0xe7, 0xfa, 0x2d, 0x4e, 0xb2, 0xeb, 0xd6, 0xca, 0xc2,
  0xbb, 0x1a, 0xf6, 0x0f, 0xa1, 0xad, 0x28, 0x43, 0x4a, 0xf3, 0x00, 0xcc,
  0x57, 0xf9, 0x41, 0xe3, 0x06, 0xfa, 0xca, 0x25, 0x2a, 0x2a, 0x3d, 0xce,
  0x09, 0x0e, 0xfb, 0x16, 0xf4, 0x2f, 0xe3, 0xd5, 0x35, 0xfd, 0x52, 0xd2,
  0x2f, 0xa1, 0x1b, 0x9b, 0xef, 0x81, 0xfa, 0x3f, 0x4f, 0x27, 0x07, 0x41,
  0x17, 0x34, 0xf3, 0xeb, 0x50, 0x26, 0xd6, 0xce, 0x17, 0xd9, 0xee, 0xf6,
  0x22, 0x16, 0x41, 0x05, 0xfb, 0xfa, 0x00, 0x08, 0x49, 0xcf, 0x8f, 0x3d,
  0x27, 0x08, 0x50, 0x1d, 0xc0, 0x00, 0xd2, 0xcc, 0xf0, 0x22, 0xdd, 0xfc,
  0xde, 0xaf, 0x53, 0xf9, 0x2a, 0x05, 0xfa, 0x17, 0x7f, 0xf9, 0x1d, 0xc4,
  0x07, 0xe5, 0x26, 0xe3, 0xbc, 0x91, 0xe6, 0xd5, 0xf4, 0x0d, 0xf2, 0x70,
  0xfe, 0x47, 0xca, 0xf5, 0x02, 0xf7, 0x1c, 0xe9, 0x0e, 0xdd, 0xb5, 0x23,
  0xec, 0x39, 0x11, 0x11, 0xf3, 0x24, 0xdf, 0xf5, 0x1c, 0x04, 0x20, 0xd9,
  0xf5, 0xff, 0xef, 0xd5, 0x44, 0x06, 0xd2, 0x17, 0x12, 0xf7, 0xb4, 0x03,
  0x2b, 0xfc, 0xe7, 0x44, 0x07, 0xbf, 0x9d, 0xbf, 0xe1, 0xe0, 0x1b, 0x22,
  0x7f, 0xf3, 0x0f, 0x20, 0xf9, 0xca, 0x55, 0xb1, 0xa7, 0x27, 0x7f, 0x13,
  0xf1, 0xbc, 0x4b, 0x0a, 0x27, 0x27, 0xf0, 0xcf, 0x0f, 0x0e, 0x30, 0x0a,
  0xfe, 0x14, 0x05, 0xea, 0x01, 0x21, 0xef, 0xe4, 0xfd, 0xdb, 0x21, 0xe2,
  0x17, 0x16, 0xf8, 0x3a, 0xec, 0x0b, 0x25, 0x42, 0xfb, 0x31, 0x02, 0xe8,
  0x03, 0xf9, 0x06, 0xcf, 0x17, 0xe8, 0xee, 0x1d, 0x41, 0x12, 0x08, 0xeb,
  0x46, 0x00, 0x2d, 0xda, 0xc8, 0xf3, 0x0c, 0x27, 0xf2, 0xe2, 0x30, 0xe0,
  0xd3, 0x9a, 0xe8, 0x35, 0x23, 0xc1, 0x81, 0x23, 0xc8, 0x2a, 0xce, 0x02,
  0xef, 0xe8, 0x8a, 0x1b, 0x34, 0x19, 0xea, 0x28, 0x20, 0x15, 0x1b, 0x73,
  0x1b, 0x09, 0x32, 0x13, 0x81, 0xe8, 0x1b, 0xfb, 0xc0, 0x15, 0xf0, 0xe5,
  0xf3, 0x3b, 0x02, 0xf6, 0x1d, 0x32, 0x06, 0xe3, 0x0c, 0x28, 0x05, 0xf8,
  0x0d, 0xdf, 0x39, 0x07, 0x0c, 0xff, 0xd3, 0xc3, 0x16, 0xd0, 0xfd, 0xc4,
  0x26, 0xe4, 0x18, 0x38, 0x2d, 0xd1, 0xf4, 0xe7, 0x03, 0x38, 0x59, 0x4a,
  0x21, 0xfa, 0xf8, 0x10, 0xec, 0xfa, 0xdf, 0xff, 0x41, 0xfe, 0x09, 0xe7,
  0xcb, 0x07, 0xec, 0x29, 0x10, 0xf7, 0xde, 0x05, 0xd6, 0x1b, 0x06, 0xf6,
  0x3e, 0x21, 0xbf, 0xf7, 0x16, 0xee, 0xae, 0xdd, 0xf1, 0x08, 0x06, 0x08,
  0xf8, 0x17, 0x17, 0x22, 0xfa, 0x03, 0xd6, 0x0f, 0xeb, 0xef, 0xf5, 0xf7,
  0x69, 0xff, 0xf5, 0x1a, 0xff, 0x16, 0xc3, 0xeb, 0x15, 0x35, 0xe5, 0x7f,
  0xf8, 0x24, 0x0e, 0xee, 0x16, 0xe2, 0x1c, 0x02, 0x10, 0xf7, 0xf9, 0xfe,
  0x08, 0xf9, 0x06, 0x1f, 0x02, 0x04, 0x02, 0xe6, 0xea, 0xf1, 0xe6, 0xf8,
  0x50, 0xf9, 0x17, 0x18, 0xeb, 0xa3, 0x06, 0x3f, 0x1d, 0xef, 0x2d, 0x1d,
  0xff, 0xf4, 0xc9, 0x06, 0x10, 0xe7, 0x07, 0x10, 0x0b, 0x02, 0x19, 0x11,
  0x10, 0x0d, 0xe4, 0x22, 0x81, 0x08, 0xf2, 0x18, 0xf1, 0xf1, 0x0d, 0xe5,
  0xe8, 0x05, 0x21, 0xae, 0xfa, 0x01, 0x31, 0xe0, 0xd2, 0x04, 0xe0, 0xf2,
  0xe0, 0xd3, 0xf3, 0xfb, 0x5e, 0x19, 0x09, 0xef, 0xd3, 0x1e, 0x17, 0x27,
  0xf0, 0xf1, 0xed, 0x06, 0x11, 0x22, 0xdc, 0xe1, 0xc7, 0x1f, 0xa2, 0xe6,
  0xd4, 0x04, 0x0b, 0xfe, 0xdd, 0x21, 0xc2, 0x09, 0xea, 0xfc, 0xd1, 0x17,
  0x0f, 0x21, 0x1c, 0xe1, 0x23, 0x1d, 0xee, 0xf3, 0xd8, 0xc0, 0xed, 0xd3,
  0xcf, 0x0b, 0x38, 0x22, 0xb0, 0x7f, 0x2e, 0xbb, 0xe0, 0x1f, 0xe9, 0xd9,
  0xfc, 0x17, 0x13, 0xfd, 0xce, 0xb4, 0x65, 0x14, 0x55, 0xe5, 0x09, 0x34,
  0xf2, 0x35, 0xd5, 0x95, 0xf7, 0xd1, 0xca, 0x2d, 0xce, 0x3f, 0x2e, 0xae,
  0x20, 0xfc, 0x8a, 0x13, 0x0a, 0x78, 0x38, 0xf6, 0xea, 0xed, 0x8f, 0x2d,
  0x2e, 0x25, 0xe1, 0xb5, 0x21, 0xde, 0x5f, 0x31, 0xe4, 0xd6, 0xf2, 0x32,
  0x46, 0x46, 0xf4, 0x81, 0x36, 0x34, 0x7c, 0xe6, 0xdf, 0xee, 0x01, 0xb4,
  0xe0, 0xcb, 0x9b, 0x30, 0x66, 0x37, 0xd2, 0xc1, 0x1d, 0xe1, 0xee, 0x11,
  0x5d, 0xdb, 0x32, 0xc4, 0xc5, 0xf2, 0xff, 0xcd, 0xba, 0x28, 0xff, 0xf3,
  0x7f, 0x03, 0x0e, 0x16, 0x6b, 0xbb, 0x95, 0x40, 0xda, 0x02, 0xa9, 0x40,
  0x1a, 0xfc, 0xef, 0xcc, 0xf5, 0x53, 0xde, 0xb6, 0xf2, 0xdd, 0xc6, 0x1b,
  0xdc, 0xf7, 0xd4, 0xeb, 0x2c, 0x33, 0xd6, 0x2d, 0xea, 0x11, 0x2b, 0xd8,
  0x2f, 0xc0, 0xb5, 0xd2, 0xcd, 0x1c, 0x9d, 0x71, 0x00, 0x1d, 0x30, 0xeb,
  0x03, 0x41, 0x0d, 0x04, 0x3a, 0xe4, 0x0a, 0x22, 0x32, 0x00, 0x0f, 0x4f,
  0xd7, 0xeb, 0x26, 0xfd, 0xba, 0xf2, 0x1b, 0x1b, 0xfb, 0xfe, 0x9c, 0x88,
  0x2b, 0x18, 0x7f, 0xd9, 0xc8, 0xd4, 0xbe, 0x04, 0xe0, 0xdc, 0xdd, 0x06,
  0xfa, 0xf3, 0x14, 0xe2, 0xd8, 0xed, 0x27, 0xf8, 0xf4, 0x23, 0x00, 0xe4,
  0xe2, 0x12, 0x17, 0xbd, 0x17, 0x40, 0x14, 0x23, 0x04, 0xdf, 0xed, 0x18,
  0xb6, 0xcf, 0x06, 0x2b, 0xf4, 0x03, 0x18, 0x11, 0x58, 0xea, 0xda, 0x1b,
  0x2c, 0x05, 0x1d, 0x24, 0xea, 0x02, 0x05, 0xd8, 0xca, 0x2a, 0x13, 0xf6,
  0xe5, 0x13, 0x39, 0x51, 0x07, 0x4c, 0xb8, 0x0b, 0xcd, 0xe2, 0x0d, 0xd3,
  0xf4, 0x29, 0x0a, 0xda, 0xfd, 0x0c, 0x11, 0x0c, 0xe6, 0xf9, 0xd3, 0x0b,
  0x33, 0x06, 0x16, 0x2c, 0xde, 0x13, 0x12, 0x01, 0x14, 0x81, 0xcd, 0xbb,
  0xe5, 0x24, 0xa6, 0xd9, 0x22, 0xd4, 0x0c, 0xe4, 0xe8, 0x05, 0xf9, 0x18,
  0x40, 0x17, 0xef, 0xf3, 0x14, 0xf0, 0x17, 0x2f, 0xe2, 0xdd, 0x03, 0xf4,
  0x21, 0x0c, 0xfb, 0xfb, 0xb3, 0x28, 0xf0, 0xe8, 0xf8, 0x12, 0xc0, 0xf2,
  0x09, 0xed, 0x1e, 0xde, 0xe3, 0xfc, 0x02, 0xf1, 0x16, 0x0b, 0x2a, 0x27,
  0x17, 0xdb, 0xec, 0xe9, 0xde, 0x08, 0x14, 0x01, 0x18, 0x06, 0x04, 0x07,
  0xc0, 0x81, 0xff, 0xfc, 0x0e, 0x21, 0xa0, 0x04, 0x4c, 0xf4, 0x18, 0x01,
  0xf7, 0x1f, 0x6c, 0xf5, 0xd3, 0x0f, 0x0d, 0x3a, 0xe7, 0xf6, 0xe9, 0x9b,
  0x12, 0xf8, 0xe5, 0x32, 0xbc, 0x2c, 0x2a, 0x3c, 0xb4, 0xf1, 0x81, 0xf3,
  0x24, 0xb5, 0x02, 0x1c, 0xf1, 0xe5, 0x05, 0x2d, 0x24, 0xfe, 0x24, 0xeb,
  0x23, 0x22, 0x22, 0xc7, 0x45, 0xf5, 0x71, 0xfb, 0xba, 0x31, 0xf9, 0x41,
  0x00, 0xf9, 0xed, 0xc3, 0x03, 0xae, 0xec, 0xd2, 0x05, 0x18, 0xc0, 0xaf,
  0xb1, 0xfa, 0x38, 0x39, 0xe0, 0x2b, 0x9f, 0xfc, 0xc4, 0xe9, 0x05, 0x2e,
  0xfd, 0x02, 0x05, 0xdf, 0xf9, 0x0d, 0xd3, 0x0e, 0x92, 0xe7, 0xf6, 0xe2,
  0xfb, 0xd2, 0x9a, 0xe8, 0xf6, 0x1e, 0x7f, 0x06, 0xed, 0x10, 0xd0, 0x1d,
  0x18, 0xca, 0xff, 0xc2, 0x00, 0x07, 0xe0, 0x1c, 0x13, 0xf9, 0x16, 0x1d,
  0x11, 0xe7, 0xe5, 0xc6, 0x12, 0x21, 0xd4, 0x0f, 0x08, 0xee, 0x0e, 0x94,
  0x0f, 0xa9, 0x4a, 0x46, 0xe8, 0x16, 0x1a, 0x26, 0x0d, 0xfd, 0xfb, 0x02,
  0x01, 0x10, 0xc5, 0xd4, 0xf4, 0xfc, 0x0c, 0xcf, 0x0b, 0xfe, 0xf8, 0x09,
  0x81, 0x03, 0xfe, 0x0b, 0x68, 0xdd, 0x13, 0xf0, 0x05, 0x28, 0xb9, 0xee,
  0xef, 0xfc, 0xdf, 0x08, 0x08, 0x1c, 0x0a, 0x0e, 0x10, 0xd8, 0xdd, 0x03,
  0xfd, 0x13, 0x0a, 0x0b, 0x2e, 0xf8, 0x0c, 0xfd, 0xe4, 0x12, 0xdc, 0xfa,
  0xd1, 0x2f, 0x1e, 0xc7, 0xe9, 0x01, 0x6d, 0xff, 0x16, 0x0f, 0x08, 0xe3,
  0x22, 0x49, 0x47, 0x17, 0x2c, 0x14, 0x1a, 0xf0, 0x38, 0xf3, 0x0d, 0xe3,
  0xdc, 0xf1, 0xdd, 0xfe, 0x2d, 0x13, 0xff, 0xdf, 0x0e, 0x15, 0x13, 0x96,
  0x30, 0x9d, 0x6f, 0x21, 0xf4, 0x15, 0xd2, 0x00, 0xe6, 0xd9, 0x01, 0xe3,
  0xfb, 0x2b, 0xdc, 0xe3, 0xb2, 0x3a, 0x31, 0xf1, 0xba, 0xf2, 0xf7, 0x1f,
  0xf7, 0x03, 0x2a, 0x25, 0x09, 0x7f, 0x00, 0x1b, 0x0d, 0x28, 0x6a, 0x05,
  0x1d, 0xd9, 0xdd, 0xf0, 0xe6, 0xcb, 0x7f, 0xd0, 0xc0, 0xf6, 0x34, 0xf9,
  0xc8, 0xf9, 0xc1, 0x09, 0xd1, 0x26, 0x38, 0xeb, 0x05, 0xd5, 0x1a, 0xbc,
  0xfe, 0xfc, 0x66, 0x2e, 0xed, 0xae, 0x25, 0xb8, 0x21, 0x40, 0xce, 0xc2,
  0x05, 0xfb, 0x15, 0x4c, 0xf4, 0xfd, 0x23, 0xc1, 0xbf, 0xd9, 0x4b, 0xf1,
  0x16, 0xdf, 0x2d, 0xf0, 0xcd, 0xfd, 0x24, 0xee, 0xb6, 0x09, 0xf2, 0x98,
  0xd6, 0xc4, 0x82, 0xc4, 0xa2, 0xdf, 0x04, 0xd8, 0x01, 0x25, 0xb5, 0xf8,
  0x2a, 0x04, 0x00, 0x22, 0xd0, 0xfe, 0xe0, 0x4b, 0xe6, 0xda, 0xf7, 0x24,
  0x81, 0x04, 0x0c, 0xf6, 0x37, 0xfd, 0xe6, 0xd8, 0xf5, 0xd2, 0x79, 0xeb,
  0xf7, 0x14, 0xc5, 0xfa, 0xf6, 0xf3, 0xe7, 0x1e, 0x1e, 0xea, 0xe9, 0xdb,
  0xd5, 0x00, 0xbc, 0x09, 0xdf, 0xd3, 0xfa, 0xcb, 0xde, 0x0c, 0xf1, 0xd0,
  0x06, 0xbb, 0x1e, 0x1e, 0x13, 0xe9, 0xf0, 0xf6, 0xe8, 0xd1, 0x0b, 0x17,
  0xc4, 0x13, 0xc8, 0xee, 0xbd, 0x17, 0xe6, 0x1f, 0xd9, 0x0c, 0xdd, 0xb6,
  0x00, 0x10, 0x2f, 0x11, 0x0a, 0x13, 0x24, 0xe7, 0x3b, 0xef, 0x81, 0xc5,
  0x3e, 0xef, 0xb0, 0xfb, 0x37, 0x05, 0x08, 0x36, 0xfb, 0xd7, 0x18, 0x18,
  0xbb, 0x37, 0xe3, 0x09, 0x9f, 0x1b, 0x12, 0xc9, 0xe1, 0x57, 0xd4, 0x0d,
  0x29, 0xcb, 0x3d, 0x09, 0x52, 0x07, 0x26, 0xc2, 0x21, 0x32, 0x05, 0x92,
  0xc2, 0x26, 0x09, 0x20, 0xe5, 0xe9, 0xa9, 0xf6, 0x30, 0x07, 0xba, 0xe0,
  0xe9, 0x02, 0xed, 0x18, 0x16, 0xf5, 0x1e, 0xe3, 0x81, 0x03, 0xf2, 0xf1,
  0x3e, 0x09, 0xfa, 0xde, 0x00, 0xfa, 0x21, 0xe0, 0x10, 0x10, 0xea, 0x03,
  0x15, 0xfb, 0xfc, 0xeb, 0x20, 0xe3, 0x09, 0x09, 0xe9, 0xec, 0x2a, 0x25,
  0xd2, 0xd7, 0x03, 0xf5, 0xf8, 0x02, 0x29, 0x0e, 0xe7, 0xf8, 0xf6, 0xd8,
  0xf9, 0xe5, 0xec, 0xc6, 0x57, 0x22, 0xe5, 0xd8, 0x26, 0x18, 0xde, 0x18,
  0xfa, 0x06, 0x10, 0x1b, 0xf0, 0x01, 0xd7, 0xa4, 0xdd, 0x07, 0x42, 0x14,
  0x7f, 0x13, 0xe0, 0xfc, 0x55, 0xfb, 0xd0, 0x49, 0xe7, 0x25, 0x4a, 0xe4,
  0xfe, 0xff, 0x13, 0xfc, 0xfd, 0x27, 0xea, 0xe6, 0xe7, 0xf9, 0xe0, 0xe5,
  0xda, 0xf7, 0x04, 0x0a, 0x84, 0xe8, 0x15, 0x06, 0x1f, 0x11, 0x15, 0x01,
  0xd2, 0x21, 0x0d, 0xe5, 0xfd, 0xeb, 0xc3, 0x1a, 0xcf, 0x08, 0xe4, 0xe1,
  0x09, 0xe2, 0x81, 0xec, 0x33, 0x0d, 0x00, 0x19, 0xe0, 0x0b, 0x06, 0xdd,
  0xdc, 0xdf, 0x12, 0xf5, 0x4e, 0x0d, 0x0b, 0x06, 0xd2, 0xd8, 0xf5, 0xf6,
  0x16, 0xed, 0xe0, 0xe8, 0x30, 0xe8, 0xfe, 0xc4, 0x04, 0x01, 0xec, 0xd0,
  0x09, 0x2b, 0xf6, 0x1a, 0x03, 0xe9, 0x2a, 0x1f, 0xc6, 0x2a, 0xf5, 0xdf,
  0x15, 0x00, 0xdf, 0x27, 0xfa, 0xce, 0xe5, 0xa3, 0xf3, 0x2d, 0x51, 0x33,
  0xfc, 0x14, 0xe7, 0x18, 0xd2, 0xff, 0xe9, 0x06, 0xed, 0x25, 0xed, 0xea,
  0x3b, 0xdb, 0xc1, 0xe3, 0x1d, 0x28, 0x2f, 0x31, 0x18, 0x08, 0x13, 0xda,
  0x97, 0xf6, 0xa4, 0xc7, 0x20, 0xea, 0x81, 0xe9, 0x1c, 0xf0, 0xbb, 0xea,
  0x05, 0xc6, 0xe7, 0xd8, 0xe1, 0x18, 0xc8, 0xdc, 0xef, 0x27, 0xd8, 0xdc,
  0x3b, 0xdc, 0xd0, 0x21, 0x3a, 0x16, 0x32, 0xfb, 0xfd, 0x7c, 0xa7, 0xaf,
  0x2a, 0x37, 0x16, 0xbb, 0xbf, 0x34, 0xff, 0xee, 0x0d, 0x09, 0x40, 0xfe,
  0xf4, 0x0c, 0x0a, 0xd9, 0xe9, 0x0a, 0xf9, 0x1e, 0xf2, 0x18, 0xdd, 0xff,
  0x81, 0x18, 0x04, 0x00, 0x41, 0xd9, 0xd9, 0x00, 0x09, 0xe5, 0x04, 0x0e,
  0xf1, 0x12, 0x11, 0x16, 0x11, 0x02, 0x08, 0x0b, 0xf5, 0xfb, 0xe8, 0xf3,
  0x3c, 0xeb, 0x25, 0xfb, 0x07, 0x06, 0xf8, 0x05, 0x0a, 0xea, 0x2b, 0x09,
  0xef, 0xfd, 0x2c, 0xea, 0x16, 0xfd, 0xfe, 0x24, 0x01, 0x27, 0xfb, 0x16,
  0xfb, 0x0d, 0xdc, 0x08, 0x00, 0x05, 0x10, 0xee, 0xf7, 0x07, 0xff, 0xf3,
  0x0b, 0xf0, 0xee, 0x1e, 0x7f, 0xf0, 0x15, 0x11, 0x56, 0x07, 0xf0, 0x36,
  0x11, 0xc1, 0xb7, 0x22, 0xd5, 0xe1, 0xce, 0x23, 0x01, 0xd8, 0xf0, 0xb6,
  0xfc, 0xf4, 0xe3, 0x08, 0xd6, 0x16, 0xf3, 0x07, 0xda, 0xf4, 0xe4, 0x05,
  0x12, 0x14, 0x2e, 0x05, 0x06, 0xc0, 0xd5, 0x05, 0x15, 0xe2, 0xf3, 0x12,
  0x2f, 0x10, 0xf6, 0xe6, 0x10, 0xfa, 0xea, 0x07, 0xe9, 0x08, 0x05, 0x03,
  0x04, 0xf6, 0xfd, 0xf8, 0xfa, 0xfc, 0x03, 0xf7, 0xf2, 0xf6, 0x0b, 0x00,
  0x81, 0x08, 0x00, 0x13, 0xef, 0xe7, 0xe1, 0xfa, 0x01, 0x07, 0xe4, 0x06,
  0x07, 0xe1, 0xff, 0x09, 0xf8, 0x06, 0x0e, 0xf7, 0x09, 0xf9, 0x0d, 0xfb,
  0x0f, 0x0d, 0xfc, 0x0a, 0xf3, 0x01, 0x0d, 0xf8, 0x00, 0xef, 0xfc, 0xf1,
  0xfa, 0x00, 0xf6, 0x11, 0xcf, 0xfd, 0xec, 0xfd, 0x5e, 0x17, 0xdb, 0xf5,
  0x28, 0x09, 0xa1, 0xe2, 0x2d, 0xdb, 0x03, 0xe7, 0x01, 0x27, 0xa2, 0x03,
  0x39, 0x10, 0x30, 0xc9, 0x43, 0x25, 0x22, 0x4e, 0x2e, 0x0f, 0x23, 0x38,
  0x47, 0x2f, 0xe0, 0x0a, 0x15, 0x20, 0x22, 0xca, 0xaf, 0x83, 0x0f, 0xd4,
  0x88, 0x24, 0x11, 0x31, 0x22, 0xe4, 0x25, 0xab, 0x27, 0xf7, 0x6b, 0x05,
  0xd1, 0x81, 0x2f, 0xc1, 0x1c, 0xb8, 0xc2, 0x69, 0x12, 0xd1, 0x01, 0xe9,
  0xf9, 0x0c, 0xee, 0x03, 0xed, 0x09, 0x0e, 0xf2, 0x04, 0x08, 0xfb, 0xea,
  0xf6, 0xf6, 0x16, 0x09, 0x35, 0xf4, 0x03, 0x0f, 0x81, 0x13, 0xfc, 0x19,
  0xfe, 0x10, 0xeb, 0x03, 0x0f, 0x07, 0xf6, 0x03, 0xfc, 0xe4, 0x04, 0xf4,
  0x09, 0x0e, 0xfc, 0x07, 0x09, 0xfc, 0x10, 0xfe, 0xd7, 0xed, 0xf7, 0xf7,
  0xf8, 0x08, 0xf3, 0x03, 0x01, 0xf6, 0xf7, 0x1c, 0xf8, 0xf6, 0xe6, 0xf0,
  0xc1, 0x05, 0xef, 0x0f, 0x42, 0xfa, 0x86, 0xd2, 0xe0, 0xf8, 0x0c, 0xe0,
  0x12, 0xed, 0xe0, 0x81, 0xff, 0xe1, 0x13, 0xd8, 0x89, 0x16, 0xf4, 0xe1,
  0xbd, 0xd8, 0xa6, 0x23, 0xe0, 0xd4, 0xdb, 0xe4, 0xe7, 0xc2, 0x29, 0x26,
  0xda, 0xef, 0x15, 0x16, 0x0a, 0xde, 0x99, 0x15, 0xb3, 0xf3, 0x17, 0xd4,
  0xd8, 0x48, 0xd6, 0x13, 0x1c, 0xec, 0xe9, 0x9d, 0x64, 0xfa, 0xc2, 0xc4,
  0xe0, 0xe9, 0x62, 0xc6, 0x44, 0x40, 0xf5, 0xe3, 0x00, 0xde, 0x46, 0xef,
  0xf5, 0xe7, 0xf1, 0xe9, 0x35, 0xef, 0x24, 0x3e, 0x1c, 0x19, 0xce, 0xe9,
  0x81, 0x0e, 0xf3, 0xc6, 0x47, 0xea, 0xd1, 0xd6, 0xff, 0xab, 0x46, 0xeb,
  0x03, 0xda, 0x27, 0x1f, 0xe8, 0x07, 0x15, 0xb7, 0x08, 0xed, 0x09, 0xe5,
  0xe9, 0xf6, 0xc3, 0x20, 0x3f, 0xe0, 0xed, 0xbe, 0x0b, 0xf1, 0x3d, 0xd9,
  0x3b, 0x3e, 0xe5, 0x29, 0x15, 0xeb, 0x10, 0xbf, 0xb8, 0xeb, 0x28, 0x06,
  0xf8, 0x2d, 0x9e, 0x01, 0xd4, 0xe1, 0x21, 0x37, 0x22, 0x26, 0xef, 0x0f,
  0x09, 0x2e, 0xc9, 0x14, 0xfd, 0x03, 0x04, 0x30, 0x86, 0x06, 0x5f, 0xb2,
  0x1f, 0x04, 0x65, 0xeb, 0xd7, 0xe3, 0x16, 0x20, 0xf2, 0xcd, 0xf9, 0xb9,
  0x0c, 0x3f, 0xd2, 0x21, 0xee, 0xfa, 0x3b, 0x1b, 0xe2, 0xe9, 0x02, 0xcb,
  0x15, 0x05, 0xaa, 0x14, 0xcd, 0x7f, 0xd0, 0xb3, 0x0e, 0xc2, 0xde, 0x0f,
  0xe8, 0xf1, 0xd5, 0xf2, 0x24, 0xe8, 0x31, 0xf0, 0x43, 0x05, 0xe0, 0xda,
  0x21, 0x1c, 0x19, 0x12, 0x05, 0x16, 0xfd, 0x2e, 0x7f, 0x21, 0xe1, 0x22,
  0x14, 0x25, 0x0b, 0x02, 0x17, 0xf4, 0xac, 0x05, 0xbb, 0xed, 0xdf, 0x0a,
  0x04, 0xdf, 0x25, 0x16, 0xe3, 0x04, 0xae, 0xe8, 0xff, 0xec, 0xc8, 0xd3,
  0xc4, 0xb4, 0xf2, 0xc6, 0x1c, 0x1c, 0xc3, 0xdd, 0xce, 0xfc, 0xe3, 0x10,
  0xee, 0xd9, 0x96, 0x42, 0x01, 0xb2, 0xca, 0xf8, 0x0f, 0x15, 0x7f, 0x00,
  0xf9, 0xfa, 0xca, 0x1e, 0x14, 0x01, 0x2b, 0x0e, 0x0a, 0x11, 0xec, 0xfa,
  0xeb, 0xfa, 0x0d, 0x08, 0x50, 0xfd, 0x21, 0x00, 0x23, 0xe7, 0xf3, 0x19,
  0xf4, 0x01, 0xf3, 0xf8, 0x00, 0x26, 0x08, 0x17, 0x0e, 0xf1, 0x20, 0xfd,
  0x00, 0x01, 0x32, 0x22, 0x64, 0xfb, 0x19, 0xfa, 0xb3, 0x0e, 0xe0, 0x2a,
  0xea, 0xe3, 0xfd, 0x2a, 0xd4, 0x1b, 0x38, 0x2f, 0x19, 0x27, 0x18, 0xce,
  0xd3, 0xd8, 0x28, 0xfa, 0xa8, 0x03, 0x23, 0x1d, 0x25, 0x06, 0x03, 0x49,
  0xd7, 0xfc, 0x26, 0xd9, 0x81, 0xf3, 0x1d, 0xd1, 0x22, 0x35, 0x04, 0x07,
  0x1f, 0x21, 0x2b, 0xd0, 0x21, 0xef, 0xd7, 0xdb, 0xed, 0x20, 0xe7, 0xd0,
  0xf6, 0xf5, 0xce, 0xdc, 0x2b, 0x1a, 0x17, 0xe3, 0xa6, 0x32, 0x11, 0x1b,
  0x28, 0x26, 0xe0, 0xe7, 0xdd, 0x03, 0xe3, 0x07, 0xe8, 0x45, 0x9e, 0x14,
  0xdf, 0xda, 0xfc, 0x1c, 0xc3, 0xf4, 0xe7, 0xfe, 0xb5, 0xef, 0x1e, 0x29,
  0xc6, 0xe2, 0xd8, 0xa2, 0xcf, 0xda, 0x0c, 0x16, 0x81, 0xfd, 0xe6, 0x00,
  0xf3, 0xee, 0x2c, 0xff, 0x2a, 0x17, 0x17, 0x15, 0xee, 0x31, 0x37, 0xdc,
  0x1b, 0x4b, 0xe0, 0x46, 0xfa, 0xee, 0x38, 0x32, 0xda, 0xca, 0x3d, 0xe3,
  0x9c, 0x0c, 0xe0, 0xb8, 0xef, 0x00, 0x17, 0xf6, 0xee, 0xb3, 0x48, 0xcf,
  0x1c, 0xd3, 0x0a, 0x49, 0xd8, 0xce, 0xfb, 0xe4, 0xd5, 0x0b, 0xcc, 0x21,
  0xf5, 0x16, 0x2d, 0xfd, 0xc9, 0xd8, 0xc7, 0x40, 0x18, 0x01, 0x32, 0xf9,
  0x7f, 0x26, 0xde, 0xf0, 0xab, 0xeb, 0x20, 0xe3, 0x11, 0xf8, 0xdc, 0x28,
  0x08, 0xdc, 0xcc, 0xde, 0x02, 0xa1, 0x0f, 0x39, 0xd7, 0x3a, 0x14, 0x0f,
  0x3a, 0x03, 0xe3, 0x30, 0x3f, 0xd5, 0x17, 0x3f, 0x2b, 0x01, 0x59, 0x06,
  0xa6, 0x97, 0x8f, 0xc8, 0x08, 0xfd, 0x2e, 0x9e, 0x22, 0xd4, 0xf9, 0xfb,
  0xe5, 0xb4, 0x5c, 0x08, 0x14, 0xe4, 0x04, 0x42, 0xb5, 0xcd, 0x57, 0xf0,
  0xda, 0xe9, 0xf0, 0xee, 0xf7, 0x1c, 0xc1, 0x15, 0x26, 0x22, 0xcc, 0xd2,
  0x18, 0x01, 0x92, 0xf9, 0xcc, 0xd7, 0xce, 0xf2, 0xba, 0x47, 0x10, 0x2a,
  0xf0, 0xc9, 0xf7, 0xe5, 0x65, 0xa8, 0xd8, 0xcb, 0xe9, 0x0b, 0xf2, 0xda,
  0xef, 0xfe, 0x81, 0x16, 0xf3, 0xa9, 0xdf, 0x34, 0xef, 0xcb, 0x33, 0x16,
  0x07, 0xb3, 0x0a, 0x1c, 0x2c, 0x21, 0xfb, 0x37, 0x27, 0xf2, 0x1f, 0xd7,
  0xb6, 0xf4, 0xfa, 0x55, 0xe5, 0xd7, 0x23, 0x13, 0x7f, 0x2d, 0xee, 0xcb,
  0xbf, 0x1f, 0xd2, 0x2e, 0x0b, 0x47, 0xde, 0xdc, 0x09, 0xc3, 0x01, 0x35,
  0xe5, 0x20, 0x17, 0xbe, 0x1c, 0xe7, 0x10, 0x4a, 0x67, 0xfe, 0x1d, 0xff,
  0x72, 0xda, 0x1c, 0xfc, 0x42, 0xea, 0x2c, 0x1f, 0x1a, 0xeb, 0xb5, 0x35,
  0xea, 0x34, 0xe2, 0xe1, 0xd5, 0x3b, 0xe9, 0x1c, 0x24, 0xea, 0x0c, 0x06,
  0x26, 0xe7, 0xfc, 0x21, 0x1c, 0x00, 0xfd, 0x9f, 0xdc, 0xfc, 0xfc, 0xed,
  0xc0, 0x17, 0x0e, 0xe5, 0x7f, 0x27, 0x5b, 0x21, 0xe8, 0xd2, 0xa6, 0x25,
  0x2c, 0x0a, 0xff, 0xe7, 0xfe, 0x1b, 0xf1, 0x24, 0xeb, 0x05, 0x11, 0x13,
  0x00, 0xf3, 0x04, 0x27, 0xe0, 0x11, 0x16, 0xe8, 0x12, 0xff, 0xdf, 0xfd,
  0xf1, 0xee, 0x0b, 0xee, 0x21, 0xc1, 0xab, 0xb2, 0x18, 0x02, 0x1b, 0xef,
  0x25, 0x1e, 0xdf, 0xfe, 0x1b, 0x34, 0xf1, 0xb2, 0x2d, 0xd2, 0xd1, 0xe5,
  0xfb, 0xf2, 0x2b, 0xed, 0xd1, 0x25, 0xd8, 0xe5, 0x62, 0x49, 0x64, 0xea,
  0x0f, 0x7e, 0x81, 0xf0, 0xf8, 0xf7, 0xb1, 0xec, 0x29, 0xbc, 0xd6, 0xbd,
  0xe0, 0x0b, 0x12, 0xe4, 0x5e, 0x13, 0xe0, 0x0e, 0xc2, 0xe9, 0x19, 0xfc,
  0x0d, 0x2a, 0x30, 0xe6, 0xb2, 0xfd, 0xb6, 0xfb, 0xdb, 0xe9, 0x1b, 0x38,
  0x03, 0x05, 0xf8, 0xf6, 0xda, 0xf7, 0xfb, 0xfa, 0xeb, 0xda, 0x18, 0x40,
  0xcb, 0x20, 0xf2, 0x0d, 0xdd, 0xf0, 0x21, 0x17, 0x81, 0x15, 0x0e, 0xec,
  0x07, 0xce, 0x51, 0x1f, 0x2a, 0xf3, 0x2e, 0xe8, 0x3a, 0x04, 0x01, 0xfb,
  0x22, 0x56, 0xe6, 0xfd, 0x0f, 0x22, 0x01, 0x06, 0xe3, 0x12, 0x66, 0xed,
  0x30, 0x0e, 0x05, 0x2f, 0x12, 0x03, 0x53, 0xf4, 0xd6, 0x8b, 0x13, 0xbf,
  0x0c, 0xb1, 0x49, 0xe1, 0xf7, 0x16, 0x1b, 0xd2, 0x22, 0x30, 0x4f, 0xff,
  0xec, 0x03, 0xc9, 0xc8, 0x22, 0x0b, 0xe3, 0x7a, 0x39, 0x20, 0x34, 0xe7,
  0x7f, 0x28, 0x1d, 0xf5, 0x0b, 0xff, 0xeb, 0x3b, 0xeb, 0x40, 0xfb, 0x08,
  0x08, 0x0f, 0xe8, 0xda, 0xf0, 0xf8, 0x15, 0xe5, 0xec, 0x0c, 0xe3, 0x34,
  0xe5, 0xfb, 0x3a, 0x38, 0x12, 0xbd, 0x25, 0xe1, 0xf5, 0xdd, 0x23, 0x29,
  0xf7, 0xb3, 0xdd, 0x27, 0xff, 0x43, 0x89, 0x33, 0xf9, 0xcd, 0x28, 0x17,
  0x05, 0xfc, 0x81, 0xe4, 0xd3, 0xf8, 0x10, 0xdd, 0x08, 0x20, 0x1a, 0x3d,
  0xe4, 0x12, 0x3f, 0x24, 0xea, 0x05, 0x01, 0x23, 0xe0, 0x1b, 0xe8, 0xe6,
  0x19, 0x1b, 0x2a, 0xfc, 0x30, 0x1e, 0xff, 0xd8, 0x01, 0x2a, 0xf3, 0xf7,
  0xe4, 0x0d, 0xfa, 0xec, 0x19, 0x01, 0x24, 0x0c, 0xaf, 0x27, 0x04, 0xec,
  0x23, 0xcd, 0x14, 0x01, 0xe2, 0x01, 0xcf, 0xfa, 0xfd, 0xeb, 0x34, 0x21,
  0xb5, 0xe4, 0x02, 0x2e, 0x0d, 0x02, 0x12, 0xf3, 0x25, 0x04, 0x20, 0x11,
  0xee, 0x10, 0xfb, 0xf4, 0x1d, 0x0e, 0x29, 0x01, 0x7f, 0xfd, 0x04, 0xf2,
  0xb3, 0xe7, 0x25, 0x18, 0xfb, 0x05, 0xd8, 0x1e, 0xd7, 0x15, 0xee, 0x32,
  0xf2, 0xff, 0x0f, 0x22, 0xf7, 0xfd, 0x1c, 0x03, 0x20, 0x10, 0xbb, 0x12,
  0xbf, 0x03, 0xff, 0xf0, 0x04, 0xfa, 0x07, 0x2a, 0xca, 0x01, 0xe1, 0xf9,
  0x0e, 0xd4, 0xdd, 0x13, 0x03, 0xf4, 0xd1, 0xf1, 0xcc, 0xfe, 0x13, 0xf6,
  0x03, 0xf0, 0x16, 0xd4, 0xfb, 0xe5, 0x05, 0x24, 0xf4, 0xe8, 0x02, 0x08,
  0xf5, 0xec, 0xff, 0x1e, 0xce, 0x0e, 0xfe, 0xb8, 0xf8, 0x0c, 0x2f, 0xcc,
  0x04, 0x0d, 0x66, 0x25, 0x08, 0xec, 0x12, 0x31, 0xdf, 0x1c, 0xf9, 0x0e,
  0xec, 0xd4, 0x32, 0x0e, 0x7f, 0xea, 0xe5, 0xf7, 0xe8, 0x1a, 0xad, 0x02,
  0xf6, 0x0b, 0x2c, 0x79, 0xef, 0xf8, 0x75, 0xf3, 0xf7, 0x0d, 0x09, 0xf6,
  0x0c, 0x19, 0x92, 0x1f, 0xe2, 0x08, 0x1d, 0xca, 0xe1, 0xfc, 0x0d, 0x2a,
  0x1c, 0xf5, 0x32, 0xec, 0x7f, 0x17, 0xe3, 0xeb, 0x01, 0xd9, 0xd1, 0x57,
  0x0b, 0x11, 0xbc, 0x21, 0xf9, 0xd3, 0xcd, 0x17, 0x0b, 0xff, 0xeb, 0x99,
  0xee, 0xf5, 0xd7, 0xf4, 0x1b, 0x06, 0xd1, 0xf9, 0x36, 0xfa, 0xde, 0xd6,
  0xd8, 0xee, 0xbb, 0x2b, 0x19, 0xd7, 0xfc, 0xb0, 0x15, 0x3f, 0x09, 0xfe,
  0x04, 0xf1, 0x18, 0xf2, 0xc6, 0x12, 0x64, 0x1c, 0xf3, 0x02, 0x0e, 0xfc,
  0x1e, 0x1e, 0x13, 0x50, 0x2e, 0x0a, 0xed, 0x16, 0x7f, 0xec, 0xf2, 0x2d,
  0x8e, 0x24, 0x0f, 0xd6, 0xee, 0xff, 0x34, 0xc2, 0xe1, 0x22, 0xca, 0x09,
  0xf4, 0x14, 0x27, 0x2b, 0xe0, 0x19, 0x10, 0xf6, 0xca, 0xfb, 0xa7, 0xfe,
  0x10, 0x19, 0x21, 0xf5, 0x22, 0x25, 0xf3, 0x12, 0x1e, 0xb8, 0x1b, 0x01,
  0x20, 0x1e, 0xd1, 0x76, 0xfe, 0xfd, 0x00, 0xff, 0x17, 0x13, 0xcf, 0xfe,
  0xdb, 0xe4, 0x07, 0xee, 0x02, 0xf8, 0x25, 0xd3, 0x03, 0xe0, 0x2c, 0xfc,
  0xa7, 0x0d, 0x06, 0xfd, 0xc9, 0xdb, 0x28, 0x16, 0x10, 0xbf, 0x15, 0xff,
  0xe0, 0x0d, 0xf2, 0x08, 0xeb, 0x34, 0xf7, 0xda, 0xdf, 0xf1, 0x06, 0x11,
  0x0c, 0x1f, 0x06, 0xe1, 0x81, 0x39, 0x03, 0x12, 0xe1, 0xe0, 0x09, 0xbe,
  0x4b, 0xdb, 0x2b, 0xe0, 0xef, 0xc6, 0x12, 0xee, 0xea, 0x28, 0x06, 0x0b,
  0x12, 0xe0, 0x9f, 0xf1, 0x03, 0xef, 0x06, 0xea, 0xc6, 0xf8, 0x15, 0xc6,
  0x15, 0xf0, 0xdd, 0x08, 0x07, 0xf8, 0xf0, 0xd5, 0x81, 0xd8, 0x02, 0xee,
  0xed, 0x01, 0x0f, 0x0e, 0xe9, 0x0d, 0x26, 0xd9, 0xed, 0xd6, 0xe7, 0x35,
  0x13, 0x00, 0xe9, 0x14, 0xf7, 0x15, 0xcf, 0x21, 0x9f, 0xd6, 0xfb, 0x0a,
  0xf6, 0x03, 0xc7, 0xe2, 0xff, 0x02, 0x12, 0x1f, 0x12, 0xed, 0xe3, 0x49,
  0x91, 0xdc, 0x0f, 0xea, 0x21, 0xe1, 0x0d, 0xed, 0xa6, 0xf5, 0xe7, 0xd5,
  0x15, 0xeb, 0xec, 0x8d, 0xf5, 0x31, 0x2e, 0x02, 0x56, 0x1d, 0xec, 0xf3,
  0x49, 0xda, 0xed, 0x38, 0x08, 0xf4, 0xf2, 0xc0, 0xf5, 0x14, 0xc5, 0x00,
  0x12, 0xce, 0xe5, 0x11, 0xb0, 0x10, 0xeb, 0x05, 0x9c, 0x17, 0x20, 0x1f,
  0x81, 0xf2, 0xd8, 0x52, 0x36, 0xf2, 0x2f, 0xcf, 0xd3, 0x6e, 0x11, 0x36,
  0x05, 0xc0, 0xa0, 0x1b, 0xb5, 0xcf, 0x2c, 0xf7, 0xde, 0xf2, 0x22, 0x0e,
  0x2d, 0x0c, 0xef, 0x9b, 0x03, 0xe5, 0xe4, 0x41, 0x08, 0x0b, 0xfe, 0xea,
  0x86, 0x0c, 0xf1, 0x29, 0x47, 0x46, 0xa0, 0x1c, 0xc8, 0x18, 0xaf, 0x1a,
  0x31, 0xe6, 0x1f, 0xdf, 0xf0, 0xf3, 0x11, 0x07, 0x22, 0x04, 0x2f, 0xfe,
  0xe9, 0xfd, 0x9f, 0x03, 0x5d, 0xa4, 0xf0, 0x39, 0xf0, 0x40, 0xea, 0x30,
  0x04, 0x7f, 0xf4, 0xc9, 0xe3, 0x59, 0x50, 0x07, 0xd1, 0x2e, 0xea, 0xe2,
  0xf9, 0x1c, 0x21, 0x1b, 0x63, 0xef, 0x2a, 0xef, 0x3e, 0xe7, 0x20, 0xc9,
  0x1e, 0x3a, 0x20, 0x4b, 0x3e, 0xea, 0x04, 0x16, 0x61, 0x09, 0xea, 0x81,
  0xcf, 0x3b, 0x70, 0xcb, 0x09, 0x0f, 0xf9, 0x23, 0x37, 0xc4, 0xe3, 0x4d,
  0xec, 0x27, 0x48, 0xcf, 0xa6, 0x00, 0x66, 0xeb, 0x14, 0x3e, 0x1c, 0xcc,
  0x03, 0x0e, 0xd5, 0xf4, 0x0a, 0x77, 0xf3, 0xba, 0x3d, 0xc5, 0x35, 0x59,
  0xdd, 0x11, 0xdb, 0x47, 0x13, 0xfd, 0xbd, 0xfd, 0x06, 0xf8, 0x08, 0xea,
  0x01, 0x16, 0x3a, 0x45, 0xdf, 0xf4, 0x14, 0xfc, 0xbf, 0x08, 0x04, 0xde,
  0xd7, 0xb4, 0x8f, 0xc8, 0x27, 0x11, 0x3b, 0x0f, 0x00, 0x05, 0x0b, 0x04,
  0xf9, 0x31, 0xe2, 0x3c, 0xf9, 0x2a, 0x00, 0x0f, 0x1a, 0xf1, 0xec, 0x0b,
  0xf1, 0xf2, 0xf6, 0x85, 0x09, 0xde, 0xf6, 0xf6, 0x01, 0x21, 0xf2, 0x81,
  0x27, 0xe7, 0x3a, 0xd1, 0xe9, 0x22, 0x20, 0x02, 0x0e, 0xf5, 0xd3, 0xfe,
  0x0f, 0x10, 0xfa, 0xee, 0xea, 0xf0, 0xfe, 0x0d, 0x06, 0xf7, 0x01, 0xf4,
  0x8c, 0x05, 0x08, 0x0a, 0x37, 0x1c, 0x17, 0xcd, 0xf4, 0x08, 0xfb, 0xe5,
  0x07, 0xff, 0xf5, 0xf9, 0xfc, 0xf1, 0xfe, 0x05, 0xec, 0xf5, 0x15, 0x04,
  0x10, 0xf4, 0x18, 0x14, 0x40, 0xe3, 0xf3, 0x1c, 0xf7, 0x13, 0xf0, 0xec,
  0xdf, 0x04, 0xeb, 0xfb, 0xf4, 0x25, 0x7f, 0xd6, 0x25, 0x10, 0xf8, 0x0d,
  0x0a, 0xea, 0xfb, 0xfc, 0x1d, 0x14, 0xff, 0xd4, 0xf4, 0xf0, 0xdf, 0x2b,
  0xfa, 0x26, 0xfe, 0x16, 0xe5, 0xee, 0xfe, 0x03, 0x29, 0x08, 0x55, 0xda,
  0x05, 0x05, 0x10, 0x0e, 0xdf, 0xfa, 0x04, 0x04, 0x02, 0x0a, 0xfb, 0x21,
  0x08, 0x0e, 0xe7, 0xe9, 0xe6, 0x0d, 0x0f, 0xff, 0x2c, 0xe9, 0xec, 0x1e,
  0xfe, 0x06, 0xee, 0xe1, 0x27, 0x7f, 0x13, 0xfd, 0x09, 0x13, 0x37, 0x17,
  0x2c, 0x10, 0xe6, 0x12, 0xfc, 0x0b, 0x48, 0xf3, 0x11, 0x10, 0x17, 0x24,
  0x0f, 0x13, 0xdf, 0x15, 0x00, 0x1e, 0x5a, 0xdf, 0x45, 0xde, 0x04, 0xdb,
  0x2c, 0xfb, 0x2e, 0xeb, 0x1f, 0xd8, 0x1e, 0xdf, 0x1a, 0x26, 0xd2, 0x20,
  0xf5, 0x13, 0x13, 0x0a, 0x0a, 0x14, 0xd8, 0xff, 0xd7, 0x00, 0xd8, 0xc6,
  0x81, 0xed, 0x25, 0xf5, 0x05, 0x11, 0xe6, 0xea, 0x0a, 0x48, 0xd1, 0x2f,
  0xf3, 0x2f, 0x14, 0x1f, 0xcf, 0x32, 0x06, 0xff, 0x2f, 0x16, 0xcb, 0x08,
  0xfd, 0x0e, 0xd3, 0x1c, 0x25, 0x1b, 0x14, 0xc1, 0x21, 0xe9, 0x46, 0x27,
  0x81, 0x07, 0xf4, 0x2b, 0x49, 0x06, 0x00, 0xc8, 0xe5, 0x03, 0x06, 0xfb,
  0xe0, 0xfc, 0x42, 0x06, 0xef, 0x1b, 0xe5, 0xda, 0xc4, 0xd6, 0x4e, 0xe1,
  0xe2, 0xe7, 0x28, 0x00, 0x1f, 0xe8, 0x30, 0xf8, 0x3d, 0x06, 0xce, 0xde,
  0xc2, 0xda, 0xe2, 0xc8, 0x03, 0x1c, 0x03, 0x51, 0x16, 0xf1, 0x0a, 0xed,
  0x12, 0xbd, 0x1b, 0x0d, 0x0e, 0x1b, 0xcf, 0x2e, 0xf3, 0xea, 0x13, 0x31,
  0x2f, 0xdb, 0x38, 0x15, 0xc7, 0x07, 0xe7, 0xda, 0xde, 0xf8, 0xb1, 0x36,
  0x22, 0x25, 0x1a, 0xd3, 0xee, 0xea, 0xfd, 0x17, 0x05, 0xec, 0xf8, 0x16,
  0x07, 0xe6, 0x49, 0x17, 0x01, 0xd0, 0xdb, 0xed, 0x16, 0xc8, 0x05, 0xff,
  0x0e, 0xf1, 0xdc, 0xf2, 0xc2, 0xb1, 0xe4, 0xcb, 0xf2, 0x1a, 0x81, 0x5e,
  0xc0, 0x01, 0xc9, 0xe4, 0xf5, 0xf5, 0xd8, 0xed, 0x33, 0x29, 0xf8, 0xd7,
  0xd0, 0xd6, 0x16, 0xbf, 0x14, 0x01, 0x13, 0xd2, 0x5d, 0x4e, 0xe9, 0xc5,
  0x6e, 0xfb, 0x81, 0x42, 0x22, 0x3b, 0x58, 0xfe, 0x27, 0x01, 0xb0, 0xca,
  0xf2, 0x35, 0xcf, 0xb0, 0x22, 0x1b, 0xf5, 0xea, 0xd7, 0x04, 0x9c, 0x42,
  0xe5, 0xd0, 0x07, 0xd2, 0x11, 0x29, 0xd2, 0xd3, 0xa8, 0x3c, 0xb8, 0xe1,
  0x06, 0xc6, 0xd3, 0x9b, 0xff, 0x21, 0xc5, 0xe3, 0xa6, 0xfe, 0xff, 0xff,
  0x04, 0x00, 0x00, 0x00, 0x00, 0x01, 0x00, 0x00, 0x36, 0x30, 0x00, 0x00,
  0x6d, 0x2d, 0x00, 0x00, 0x1f, 0x21, 0x00, 0x00, 0xe8, 0xe6, 0xff, 0xff,
  0x06, 0xff, 0xff, 0xff, 0xe1, 0x0e, 0x00, 0x00, 0x6b, 0x0c, 0x00, 0x00,
  0x2d, 0x12, 0x00, 0x00, 0xd7, 0xbc, 0xff, 0xff, 0xa6, 0xd3, 0xff, 0xff,
  0x93, 0x38, 0x00, 0x00, 0x4d, 0x25, 0x00, 0x00, 0x5f, 0xef, 0xff, 0xff,
  0x93, 0x13, 0x00, 0x00, 0xad, 0x1a, 0x00, 0x00, 0xe2, 0xf9, 0xff, 0xff,
  0xb4, 0x18, 0x00, 0x00, 0xd7, 0xf2, 0xff, 0xff, 0x79, 0x3a, 0x00, 0x00,
  0xfe, 0x0c, 0x00, 0x00, 0xf5, 0xe2, 0xff, 0xff, 0x80, 0x6c, 0x00, 0x00,
  0xa0, 0x31, 0x00, 0x00, 0x97, 0xff, 0xff, 0xff, 0x05, 0x3d, 0x00, 0x00,
  0x66, 0x14, 0x00, 0x00, 0xf5, 0x3c, 0x00, 0x00, 0xbf, 0x30, 0x00, 0x00,
  0xa4, 0xea, 0xff, 0xff, 0x32, 0x0a, 0x00, 0x00, 0xdd, 0x29, 0x00, 0x00,
  0x21, 0xe6, 0xff, 0xff, 0x87, 0x25, 0x00, 0x00, 0x07, 0x83, 0x00, 0x00,
  0xab, 0x17, 0x00, 0x00, 0x83, 0x31, 0x00, 0x00, 0xa0, 0x38, 0x00, 0x00,
  0x04, 0xaf, 0xff, 0xff, 0xc4, 0x15, 0x00, 0x00, 0xff, 0x44, 0x00, 0x00,
  0x37, 0x1d, 0x00, 0x00, 0x70, 0x3f, 0x00, 0x00, 0x98, 0xb5, 0xff, 0xff,
  0x3c, 0xed, 0xff, 0xff, 0x0d, 0x23, 0x00, 0x00, 0x95, 0xe6, 0xff, 0xff,
  0xf6, 0xce, 0xff, 0xff, 0xae, 0x0a, 0x00, 0x00, 0x7c, 0x06, 0x00, 0x00,
  0xd4, 0xf9, 0xff, 0xff, 0xc3, 0x1a, 0x00, 0x00, 0xbc, 0xc0, 0xff, 0xff,
  0x7c, 0x3a, 0x00, 0x00, 0x20, 0x70, 0x00, 0x00, 0xf3, 0x49, 0x00, 0x00,
  0x45, 0xeb, 0xff, 0xff, 0x98, 0xa8, 0xff, 0xff, 0x3b, 0x20, 0x00, 0x00,
  0xe5, 0xfe, 0xff, 0xff, 0xb6, 0xd9, 0xff, 0xff, 0xdf, 0xe5, 0xff, 0xff,
  0x50, 0xfe, 0xff, 0xff, 0x73, 0x44, 0x00, 0x00, 0x57, 0x44, 0x00, 0x00,
  0xb2, 0xff, 0xff, 0xff, 0x04, 0x00, 0x00, 0x00, 0x40, 0x00, 0x00, 0x00,
  0x05, 0x2c, 0x36, 0xe4, 0x0e, 0xe2, 0xfc, 0x15, 0xfc, 0x9d, 0x68, 0x31,
  0xfd, 0x1b, 0x00, 0x0c, 0x0d, 0x09, 0x43, 0xdb, 0x24, 0x28, 0x00, 0xcd,
  0xe4, 0x36, 0x1e, 0x0c, 0xd1, 0x7f, 0x57, 0xcc, 0x3e, 0xc9, 0x02, 0x55,
  0x00, 0xe3, 0x07, 0x00, 0x18, 0xdf, 0xfe, 0xff, 0xff, 0xfd, 0xdf, 0x02,
  0x10, 0xa4, 0x24, 0x04, 0x1b, 0x1e, 0xfe, 0xdd, 0xe9, 0x35, 0xd8, 0xd4,
  0x24, 0xfc, 0x02, 0x25, 0x00, 0x00, 0x06, 0x00, 0x08, 0x00, 0x04, 0x00,
  0x06, 0x00, 0x00, 0x00, 0x04, 0x00, 0x00, 0x00, 0x04, 0x00, 0x00, 0x00,
  0xda, 0xdc, 0xff, 0xff, 0x84, 0xff, 0xff, 0xff, 0x88, 0xff, 0xff, 0xff,
  0x0f, 0x00, 0x00, 0x00, 0x4d, 0x4c, 0x49, 0x52, 0x20, 0x43, 0x6f, 0x6e,
  0x76, 0x65, 0x72, 0x74, 0x65, 0x64, 0x2e, 0x00, 0x01, 0x00, 0x00, 0x00,
  0x14, 0x00, 0x00, 0x00, 0x00, 0x00, 0x0e, 0x00, 0x18, 0x00, 0x14, 0x00,
  0x10, 0x00, 0x0c, 0x00, 0x08, 0x00, 0x04, 0x00, 0x0e, 0x00, 0x00, 0x00,
  0x14, 0x00, 0x00, 0x00, 0x1c, 0x00, 0x00, 0x00, 0xdc, 0x00, 0x00, 0x00,
  0xe0, 0x00, 0x00, 0x00, 0xe4, 0x00, 0x00, 0x00, 0x04, 0x00, 0x00, 0x00,
  0x6d, 0x61, 0x69, 0x6e, 0x00, 0x00, 0x00, 0x00, 0x03, 0x00, 0x00, 0x00,
  0x84, 0x00, 0x00, 0x00, 0x3c, 0x00, 0x00, 0x00, 0x04, 0x00, 0x00, 0x00,
  0x96, 0xff, 0xff, 0xff, 0x14, 0x00, 0x00, 0x00, 0x00, 0x00, 0x00, 0x08,
  0x10, 0x00, 0x00, 0x00, 0x14, 0x00, 0x00, 0x00, 0x04, 0x00, 0x04, 0x00,
  0x04, 0x00, 0x00, 0x00, 0x01, 0x00, 0x00, 0x00, 0x09, 0x00, 0x00, 0x00,
  0x03, 0x00, 0x00, 0x00, 0x08, 0x00, 0x00, 0x00, 0x02, 0x00, 0x00, 0x00,
  0x01, 0x00, 0x00, 0x00, 0xca, 0xff, 0xff, 0xff, 0x10, 0x00, 0x00, 0x00,
  0x00, 0x00, 0x00, 0x08, 0x10, 0x00, 0x00, 0x00, 0x14, 0x00, 0x00, 0x00,
  0xba, 0xff, 0xff, 0xff, 0x00, 0x00, 0x00, 0x01, 0x01, 0x00, 0x00, 0x00,
  0x08, 0x00, 0x00, 0x00, 0x03, 0x00, 0x00, 0x00, 0x07, 0x00, 0x00, 0x00,
  0x04, 0x00, 0x00, 0x00, 0x03, 0x00, 0x00, 0x00, 0x00, 0x00, 0x0e, 0x00,
  0x16, 0x00, 0x00, 0x00, 0x10, 0x00, 0x0c, 0x00, 0x0b, 0x00, 0x04, 0x00,
  0x0e, 0x00, 0x00, 0x00, 0x18, 0x00, 0x00, 0x00, 0x00, 0x00, 0x00, 0x08,
  0x18, 0x00, 0x00, 0x00, 0x1c, 0x00, 0x00, 0x00, 0x00, 0x00, 0x06, 0x00,
  0x08, 0x00, 0x07, 0x00, 0x06, 0x00, 0x00, 0x00, 0x00, 0x00, 0x00, 0x01,
  0x01, 0x00, 0x00, 0x00, 0x07, 0x00, 0x00, 0x00, 0x03, 0x00, 0x00, 0x00,
  0x00, 0x00, 0x00, 0x00, 0x06, 0x00, 0x00, 0x00, 0x05, 0x00, 0x00, 0x00,
  0x01, 0x00, 0x00, 0x00, 0x09, 0x00, 0x00, 0x00, 0x01, 0x00, 0x00, 0x00,
  0x00, 0x00, 0x00, 0x00, 0x0a, 0x00, 0x00, 0x00, 0xcc, 0x10, 0x00, 0x00,
  0x54, 0x10, 0x00, 0x00, 0xd8, 0x0f, 0x00, 0x00, 0x84, 0x0c, 0x00, 0x00,
  0x28, 0x09, 0x00, 0x00, 0xd4, 0x05, 0x00, 0x00, 0x78, 0x02, 0x00, 0x00,
  0xb4, 0x01, 0x00, 0x00, 0x80, 0x00, 0x00, 0x00, 0x04, 0x00, 0x00, 0x00,
  0x72, 0xef, 0xff, 0xff, 0x00, 0x00, 0x00, 0x01, 0x18, 0x00, 0x00, 0x00,
  0x20, 0x00, 0x00, 0x00, 0x3c, 0x00, 0x00, 0x00, 0x0a, 0x00, 0x00, 0x00,
  0x00, 0x00, 0x00, 0x09, 0x50, 0x00, 0x00, 0x00, 0x02, 0x00, 0x00, 0x00,
  0xff, 0xff, 0xff, 0xff, 0x01, 0x00, 0x00, 0x00, 0x5c, 0xef, 0xff, 0xff,
  0x08, 0x00, 0x00, 0x00, 0x10, 0x00, 0x00, 0x00, 0x01, 0x00, 0x00, 0x00,
  0x1a, 0x00, 0x00, 0x00, 0x00, 0x00, 0x00, 0x00, 0x01, 0x00, 0x00, 0x00,
  0xad, 0xb7, 0x8c, 0x3c, 0x1b, 0x00, 0x00, 0x00, 0x53, 0x74, 0x61, 0x74,
  0x65, 0x66, 0x75, 0x6c, 0x50, 0x61, 0x72, 0x74, 0x69, 0x74, 0x69, 0x6f,
  0x6e, 0x65, 0x64, 0x43, 0x61, 0x6c, 0x6c, 0x5f, 0x31, 0x3a, 0x30, 0x00,
  0x02, 0x00, 0x00, 0x00, 0x01, 0x00, 0x00, 0x00, 0x01, 0x00, 0x00, 0x00,
  0xea, 0xef, 0xff, 0xff, 0x00, 0x00, 0x00, 0x01, 0x18, 0x00, 0x00, 0x00,
  0x20, 0x00, 0x00, 0x00, 0x3c, 0x00, 0x00, 0x00, 0x09, 0x00, 0x00, 0x00,
  0x00, 0x00, 0x00, 0x09, 0x08, 0x01, 0x00, 0x00, 0x02, 0x00, 0x00, 0x00,
  0xff, 0xff, 0xff, 0xff, 0x40, 0x00, 0x00, 0x00, 0xd4, 0xef, 0xff, 0xff,
  0x08, 0x00, 0x00, 0x00, 0x10, 0x00, 0x00, 0x00, 0x01, 0x00, 0x00, 0x00,
  0x80, 0xff, 0xff, 0xff, 0xff, 0xff, 0xff, 0xff, 0x01, 0x00, 0x00, 0x00,
  0xb2, 0xea, 0x58, 0x3d, 0xd1, 0x00, 0x00, 0x00, 0x73, 0x65, 0x71, 0x75,
  0x65, 0x6e, 0x74, 0x69, 0x61, 0x6c, 0x5f, 0x37, 0x5f, 0x31, 0x2f, 0x62,
  0x61, 0x74, 0x63, 0x68, 0x5f, 0x6e, 0x6f, 0x72, 0x6d, 0x61, 0x6c, 0x69,
  0x7a, 0x61, 0x74, 0x69, 0x6f, 0x6e, 0x5f, 0x31, 0x34, 0x5f, 0x31, 0x2f,
  0x62, 0x61, 0x74, 0x63, 0x68, 0x6e, 0x6f, 0x72, 0x6d, 0x2f, 0x6d, 0x75,
  0x6c, 0x5f, 0x31, 0x3b, 0x73, 0x65, 0x71, 0x75, 0x65, 0x6e, 0x74, 0x69,
  0x61, 0x6c, 0x5f, 0x37, 0x5f, 0x31, 0x2f, 0x62, 0x61, 0x74, 0x63, 0x68,
  0x5f, 0x6e, 0x6f, 0x72, 0x6d, 0x61, 0x6c, 0x69, 0x7a, 0x61, 0x74, 0x69,
  0x6f, 0x6e, 0x5f, 0x31, 0x34, 0x5f, 0x31, 0x2f, 0x62, 0x61, 0x74, 0x63,
  0x68, 0x6e, 0x6f, 0x72, 0x6d, 0x2f, 0x61, 0x64, 0x64, 0x5f, 0x31, 0x3b,
  0x73, 0x65, 0x71, 0x75, 0x65, 0x6e, 0x74, 0x69, 0x61, 0x6c, 0x5f, 0x37,
  0x5f, 0x31, 0x2f, 0x64, 0x65, 0x6e, 0x73, 0x65, 0x5f, 0x32, 0x32, 0x5f,
  0x31, 0x2f, 0x4d, 0x61, 0x74, 0x4d, 0x75, 0x6c, 0x3b, 0x73, 0x65, 0x71,
  0x75, 0x65, 0x6e, 0x74, 0x69, 0x61, 0x6c, 0x5f, 0x37, 0x5f, 0x31, 0x2f,
  0x64, 0x65, 0x6e, 0x73, 0x65, 0x5f, 0x32, 0x32, 0x5f, 0x31, 0x2f, 0x52,
  0x65, 0x6c, 0x75, 0x3b, 0x73, 0x65, 0x71, 0x75, 0x65, 0x6e, 0x74, 0x69,
  0x61, 0x6c, 0x5f, 0x37, 0x5f, 0x31, 0x2f, 0x64, 0x65, 0x6e, 0x73, 0x65,
  0x5f, 0x32, 0x32, 0x5f, 0x31, 0x2f, 0x42, 0x69, 0x61, 0x73, 0x41, 0x64,
  0x64, 0x00, 0x00, 0x00, 0x02, 0x00, 0x00, 0x00, 0x01, 0x00, 0x00, 0x00,
  0x40, 0x00, 0x00, 0x00, 0x1a, 0xf1, 0xff, 0xff, 0x00, 0x00, 0x00, 0x01,
  0x18, 0x00, 0x00, 0x00, 0x20, 0x00, 0x00, 0x00, 0x3c, 0x00, 0x00, 0x00,
  0x08, 0x00, 0x00, 0x00, 0x00, 0x00, 0x00, 0x09, 0x98, 0x00, 0x00, 0x00,
  0x02, 0x00, 0x00, 0x00, 0xff, 0xff, 0xff, 0xff, 0x40, 0x00, 0x00, 0x00,
  0x04, 0xf1, 0xff, 0xff, 0x08, 0x00, 0x00, 0x00, 0x10, 0x00, 0x00, 0x00,
  0x01, 0x00, 0x00, 0x00, 0x80, 0xff, 0xff, 0xff, 0xff, 0xff, 0xff, 0xff,
  0x01, 0x00, 0x00, 0x00, 0x10, 0x9f, 0x9c, 0x3b, 0x61, 0x00, 0x00, 0x00,
  0x73, 0x65, 0x71, 0x75, 0x65, 0x6e, 0x74, 0x69, 0x61, 0x6c, 0x5f, 0x37,
  0x5f, 0x31, 0x2f, 0x64, 0x65, 0x6e, 0x73, 0x65, 0x5f, 0x32, 0x31, 0x5f,
  0x31, 0x2f, 0x4d, 0x61, 0x74, 0x4d, 0x75, 0x6c, 0x3b, 0x73, 0x65, 0x71,
  0x75, 0x65, 0x6e, 0x74, 0x69, 0x61, 0x6c, 0x5f, 0x37, 0x5f, 0x31, 0x2f,
  0x64, 0x65, 0x6e, 0x73, 0x65, 0x5f, 0x32, 0x31, 0x5f, 0x31, 0x2f, 0x52,
  0x65, 0x6c, 0x75, 0x3b, 0x73, 0x65, 0x71, 0x75, 0x65, 0x6e, 0x74, 0x69,
  0x61, 0x6c, 0x5f, 0x37, 0x5f, 0x31, 0x2f, 0x64, 0x65, 0x6e, 0x73, 0x65,
  0x5f, 0x32, 0x31, 0x5f, 0x31, 0x2f, 0x42, 0x69, 0x61, 0x73, 0x41, 0x64,
  0x64, 0x00, 0x00, 0x00, 0x02, 0x00, 0x00, 0x00, 0x01, 0x00, 0x00, 0x00,
  0x40, 0x00, 0x00, 0x00, 0x4e, 0xf2, 0xff, 0xff, 0x00, 0x00, 0x00, 0x01,
  0x14, 0x00, 0x00, 0x00, 0x28, 0x03, 0x00, 0x00, 0x07, 0x00, 0x00, 0x00,
  0x00, 0x00, 0x00, 0x09, 0x34, 0x03, 0x00, 0x00, 0xb4, 0xf1, 0xff, 0xff,
  0x08, 0x00, 0x00, 0x00, 0x0c, 0x02, 0x00, 0x00, 0x40, 0x00, 0x00, 0x00,
  0x00, 0x00, 0x00, 0x00, 0x00, 0x00, 0x00, 0x00, 0x00, 0x00, 0x00, 0x00,
  0x00, 0x00, 0x00, 0x00, 0x00, 0x00, 0x00, 0x00, 0x00, 0x00, 0x00, 0x00,
  0x00, 0x00, 0x00, 0x00, 0x00, 0x00, 0x00, 0x00, 0x00, 0x00, 0x00, 0x00,
  0x00, 0x00, 0x00, 0x00, 0x00, 0x00, 0x00, 0x00, 0x00, 0x00, 0x00, 0x00,
  0x00, 0x00, 0x00, 0x00, 0x00, 0x00, 0x00, 0x00, 0x00, 0x00, 0x00, 0x00,
  0x00, 0x00, 0x00, 0x00, 0x00, 0x00, 0x00, 0x00, 0x00, 0x00, 0x00, 0x00,
  0x00, 0x00, 0x00, 0x00, 0x00, 0x00, 0x00, 0x00, 0x00, 0x00, 0x00, 0x00,
  0x00, 0x00, 0x00, 0x00, 0x00, 0x00, 0x00, 0x00, 0x00, 0x00, 0x00, 0x00,
  0x00, 0x00, 0x00, 0x00, 0x00, 0x00, 0x00, 0x00, 0x00, 0x00, 0x00, 0x00,
  0x00, 0x00, 0x00, 0x00, 0x00, 0x00, 0x00, 0x00, 0x00, 0x00, 0x00, 0x00,
  0x00, 0x00, 0x00, 0x00, 0x00, 0x00, 0x00, 0x00, 0x00, 0x00, 0x00, 0x00,
  0x00, 0x00, 0x00, 0x00, 0x00, 0x00, 0x00, 0x00, 0x00, 0x00, 0x00, 0x00,
  0x00, 0x00, 0x00, 0x00, 0x00, 0x00, 0x00, 0x00, 0x00, 0x00, 0x00, 0x00,
  0x00, 0x00, 0x00, 0x00, 0x00, 0x00, 0x00, 0x00, 0x00, 0x00, 0x00, 0x00,
  0x00, 0x00, 0x00, 0x00, 0x00, 0x00, 0x00, 0x00, 0x00, 0x00, 0x00, 0x00,
  0x00, 0x00, 0x00, 0x00, 0x00, 0x00, 0x00, 0x00, 0x00, 0x00, 0x00, 0x00,
  0x00, 0x00, 0x00, 0x00, 0x00, 0x00, 0x00, 0x00, 0x00, 0x00, 0x00, 0x00,
  0x00, 0x00, 0x00, 0x00, 0x00, 0x00, 0x00, 0x00, 0x00, 0x00, 0x00, 0x00,
  0x00, 0x00, 0x00, 0x00, 0x00, 0x00, 0x00, 0x00, 0x00, 0x00, 0x00, 0x00,
  0x00, 0x00, 0x00, 0x00, 0x00, 0x00, 0x00, 0x00, 0x00, 0x00, 0x00, 0x00,
  0x00, 0x00, 0x00, 0x00, 0x00, 0x00, 0x00, 0x00, 0x00, 0x00, 0x00, 0x00,
  0x00, 0x00, 0x00, 0x00, 0x00, 0x00, 0x00, 0x00, 0x00, 0x00, 0x00, 0x00,
  0x00, 0x00, 0x00, 0x00, 0x00, 0x00, 0x00, 0x00, 0x00, 0x00, 0x00, 0x00,
  0x00, 0x00, 0x00, 0x00, 0x00, 0x00, 0x00, 0x00, 0x00, 0x00, 0x00, 0x00,
  0x00, 0x00, 0x00, 0x00, 0x00, 0x00, 0x00, 0x00, 0x00, 0x00, 0x00, 0x00,
  0x00, 0x00, 0x00, 0x00, 0x00, 0x00, 0x00, 0x00, 0x00, 0x00, 0x00, 0x00,
  0x00, 0x00, 0x00, 0x00, 0x00, 0x00, 0x00, 0x00, 0x00, 0x00, 0x00, 0x00,
  0x00, 0x00, 0x00, 0x00, 0x00, 0x00, 0x00, 0x00, 0x00, 0x00, 0x00, 0x00,
  0x00, 0x00, 0x00, 0x00, 0x00, 0x00, 0x00, 0x00, 0x00, 0x00, 0x00, 0x00,
  0x00, 0x00, 0x00, 0x00, 0x00, 0x00, 0x00, 0x00, 0x00, 0x00, 0x00, 0x00,
  0x00, 0x00, 0x00, 0x00, 0x00, 0x00, 0x00, 0x00, 0x00, 0x00, 0x00, 0x00,
  0x00, 0x00, 0x00, 0x00, 0x00, 0x00, 0x00, 0x00, 0x00, 0x00, 0x00, 0x00,
  0x00, 0x00, 0x00, 0x00, 0x00, 0x00, 0x00, 0x00, 0x00, 0x00, 0x00, 0x00,
  0x00, 0x00, 0x00, 0x00, 0x00, 0x00, 0x00, 0x00, 0x00, 0x00, 0x00, 0x00,
  0x00, 0x00, 0x00, 0x00, 0x00, 0x00, 0x00, 0x00, 0x00, 0x00, 0x00, 0x00,
  0x00, 0x00, 0x00, 0x00, 0x00, 0x00, 0x00, 0x00, 0x00, 0x00, 0x00, 0x00,
  0x00, 0x00, 0x00, 0x00, 0x00, 0x00, 0x00, 0x00, 0x00, 0x00, 0x00, 0x00,
  0x00, 0x00, 0x00, 0x00, 0x00, 0x00, 0x00, 0x00, 0x00, 0x00, 0x00, 0x00,
  0x00, 0x00, 0x00, 0x00, 0x00, 0x00, 0x00, 0x00, 0x00, 0x00, 0x00, 0x00,
  0x00, 0x00, 0x00, 0x00, 0x00, 0x00, 0x00, 0x00, 0x00, 0x00, 0x00, 0x00,
  0x00, 0x00, 0x00, 0x00, 0x00, 0x00, 0x00, 0x00, 0x00, 0x00, 0x00, 0x00,
  0x00, 0x00, 0x00, 0x00, 0x00, 0x00, 0x00, 0x00, 0x00, 0x00, 0x00, 0x00,
  0x00, 0x00, 0x00, 0x00, 0x00, 0x00, 0x00, 0x00, 0x00, 0x00, 0x00, 0x00,
  0x40, 0x00, 0x00, 0x00, 0x6d, 0x7f, 0xf0, 0x3a, 0xeb, 0xfe, 0x29, 0x3b,
  0xbd, 0xe7, 0xbc, 0x3a, 0x0e, 0xc9, 0x04, 0x3b, 0xde, 0xa8, 0x11, 0x3b,
  0x6b, 0xd1, 0x30, 0x3b, 0x64, 0xf4, 0x49, 0x3b, 0x75, 0xc3, 0x5f, 0x3b,
  0xdb, 0x4f, 0x5f, 0x3b, 0xfc, 0xc1, 0x31, 0x3b, 0x11, 0x4d, 0x31, 0x3b,
  0x6f, 0xa6, 0x1a, 0x3b, 0xa5, 0xab, 0x36, 0x3b, 0xb8, 0x09, 0xe6, 0x3a,
  0x39, 0xd4, 0x29, 0x3b, 0x8d, 0x65, 0x1e, 0x3b, 0x69, 0xcc, 0x35, 0x3b,
  0x84, 0x32, 0x14, 0x3b, 0xde, 0x81, 0x37, 0x3b, 0x3a, 0xc2, 0x06, 0x3b,
  0x4e, 0x18, 0x46, 0x3b, 0x0d, 0x25, 0x5b, 0x3b, 0x2b, 0xbc, 0x46, 0x3b,
  0x33, 0x9d, 0x76, 0x3b, 0x77, 0xd8, 0x22, 0x3b, 0xd3, 0x40, 0x0d, 0x3b,
  0xb3, 0x06, 0x06, 0x3b, 0xda, 0x6e, 0x27, 0x3b, 0xd2, 0xd2, 0x3d, 0x3b,
  0x84, 0xeb, 0x21, 0x3b, 0x50, 0x8c, 0x57, 0x3b, 0xb8, 0xc7, 0x63, 0x3b,
  0x64, 0x5e, 0x55, 0x3b, 0xac, 0xe7, 0x3d, 0x3b, 0xa5, 0x5f, 0x52, 0x3b,
  0xb7, 0xaf, 0x51, 0x3b, 0xfe, 0x6f, 0x0c, 0x3b, 0xc2, 0x55, 0x03, 0x3b,
  0xc5, 0x8a, 0x25, 0x3b, 0xd8, 0x19, 0xf9, 0x3a, 0x01, 0xe9, 0x0d, 0x3b,
  0x96, 0x46, 0x43, 0x3b, 0xa8, 0x9b, 0x7a, 0x3a, 0xef, 0xb7, 0x25, 0x3b,
  0x6b, 0x45, 0x62, 0x3b, 0x21, 0x82, 0x1d, 0x3b, 0x0d, 0xfc, 0x10, 0x3b,
  0xd1, 0x0d, 0x10, 0x3b, 0x42, 0xc5, 0x22, 0x3b, 0x6a, 0xe1, 0x50, 0x3b,
  0xe0, 0x9b, 0x01, 0x3b, 0x23, 0x26, 0x1c, 0x3b, 0x00, 0x9a, 0x32, 0x3b,
  0x5a, 0x8c, 0x32, 0x3b, 0x19, 0x51, 0x2f, 0x3b, 0x26, 0xd0, 0x99, 0x3b,
  0x1c, 0x11, 0x16, 0x3b, 0x07, 0xc5, 0x27, 0x3b, 0xd8, 0x23, 0x06, 0x3b,
  0x3e, 0xb3, 0x16, 0x3b, 0xb9, 0xcf, 0x40, 0x3b, 0x6a, 0xbc, 0x09, 0x3b,
  0xe0, 0x23, 0x37, 0x3b, 0x44, 0xea, 0x37, 0x3b, 0x12, 0x00, 0x00, 0x00,
  0x74, 0x66, 0x6c, 0x2e, 0x70, 0x73, 0x65, 0x75, 0x64, 0x6f, 0x5f, 0x71,
  0x63, 0x6f, 0x6e, 0x73, 0x74, 0x35, 0x00, 0x00, 0x02, 0x00, 0x00, 0x00,
  0x40, 0x00, 0x00, 0x00, 0x07, 0x00, 0x00, 0x00, 0xa6, 0xf5, 0xff, 0xff,
  0x00, 0x00, 0x00, 0x01, 0x14, 0x00, 0x00, 0x00, 0x24, 0x03, 0x00, 0x00,
  0x06, 0x00, 0x00, 0x00, 0x00, 0x00, 0x00, 0x02, 0x30, 0x03, 0x00, 0x00,
  0x0c, 0xf5, 0xff, 0xff, 0x08, 0x00, 0x00, 0x00, 0x08, 0x02, 0x00, 0x00,
  0x40, 0x00, 0x00, 0x00, 0x00, 0x00, 0x00, 0x00, 0x00, 0x00, 0x00, 0x00,
  0x00, 0x00, 0x00, 0x00, 0x00, 0x00, 0x00, 0x00, 0x00, 0x00, 0x00, 0x00,
  0x00, 0x00, 0x00, 0x00, 0x00, 0x00, 0x00, 0x00, 0x00, 0x00, 0x00, 0x00,
  0x00, 0x00, 0x00, 0x00, 0x00, 0x00, 0x00, 0x00, 0x00, 0x00, 0x00, 0x00,
  0x00, 0x00, 0x00, 0x00, 0x00, 0x00, 0x00, 0x00, 0x00, 0x00, 0x00, 0x00,
  0x00, 0x00, 0x00, 0x00, 0x00, 0x00, 0x00, 0x00, 0x00, 0x00, 0x00, 0x00,
  0x00, 0x00, 0x00, 0x00, 0x00, 0x00, 0x00, 0x00, 0x00, 0x00, 0x00, 0x00,
  0x00, 0x00, 0x00, 0x00, 0x00, 0x00, 0x00, 0x00, 0x00, 0x00, 0x00, 0x00,
  0x00, 0x00, 0x00, 0x00, 0x00, 0x00, 0x00, 0x00, 0x00, 0x00, 0x00, 0x00,
  0x00, 0x00, 0x00, 0x00, 0x00, 0x00, 0x00, 0x00, 0x00, 0x00, 0x00, 0x00,
  0x00, 0x00, 0x00, 0x00, 0x00, 0x00, 0x00, 0x00, 0x00, 0x00, 0x00, 0x00,
  0x00, 0x00, 0x00, 0x00, 0x00, 0x00, 0x00, 0x00, 0x00, 0x00, 0x00, 0x00,
  0x00, 0x00, 0x00, 0x00, 0x00, 0x00, 0x00, 0x00, 0x00, 0x00, 0x00, 0x00,
  0x00, 0x00, 0x00, 0x00, 0x00, 0x00, 0x00, 0x00, 0x00, 0x00, 0x00, 0x00,
  0x00, 0x00, 0x00, 0x00, 0x00, 0x00, 0x00, 0x00, 0x00, 0x00, 0x00, 0x00,
  0x00, 0x00, 0x00, 0x00, 0x00, 0x00, 0x00, 0x00, 0x00, 0x00, 0x00, 0x00,
  0x00, 0x00, 0x00, 0x00, 0x00, 0x00, 0x00, 0x00, 0x00, 0x00, 0x00, 0x00,
  0x00, 0x00, 0x00, 0x00, 0x00, 0x00, 0x00, 0x00, 0x00, 0x00, 0x00, 0x00,
  0x00, 0x00, 0x00, 0x00, 0x00, 0x00, 0x00, 0x00, 0x00, 0x00, 0x00, 0x00,
  0x00, 0x00, 0x00, 0x00, 0x00, 0x00, 0x00, 0x00, 0x00, 0x00, 0x00, 0x00,
  0x00, 0x00, 0x00, 0x00, 0x00, 0x00, 0x00, 0x00, 0x00, 0x00, 0x00, 0x00,
  0x00, 0x00, 0x00, 0x00, 0x00, 0x00, 0x00, 0x00, 0x00, 0x00, 0x00, 0x00,
  0x00, 0x00, 0x00, 0x00, 0x00, 0x00, 0x00, 0x00, 0x00, 0x00, 0x00, 0x00,
  0x00, 0x00, 0x00, 0x00, 0x00, 0x00, 0x00, 0x00, 0x00, 0x00, 0x00, 0x00,
  0x00, 0x00, 0x00, 0x00, 0x00, 0x00, 0x00, 0x00, 0x00, 0x00, 0x00, 0x00,
  0x00, 0x00, 0x00, 0x00, 0x00, 0x00, 0x00, 0x00, 0x00, 0x00, 0x00, 0x00,
  0x00, 0x00, 0x00, 0x00, 0x00, 0x00, 0x00, 0x00, 0x00, 0x00, 0x00, 0x00,
  0x00, 0x00, 0x00, 0x00, 0x00, 0x00, 0x00, 0x00, 0x00, 0x00, 0x00, 0x00,
  0x00, 0x00, 0x00, 0x00, 0x00, 0x00, 0x00, 0x00, 0x00, 0x00, 0x00, 0x00,
  0x00, 0x00, 0x00, 0x00, 0x00, 0x00, 0x00, 0x00, 0x00, 0x00, 0x00, 0x00,
  0x00, 0x00, 0x00, 0x00, 0x00, 0x00, 0x00, 0x00, 0x00, 0x00, 0x00, 0x00,
  0x00, 0x00, 0x00, 0x00, 0x00, 0x00, 0x00, 0x00, 0x00, 0x00, 0x00, 0x00,
  0x00, 0x00, 0x00, 0x00, 0x00, 0x00, 0x00, 0x00, 0x00, 0x00, 0x00, 0x00,
  0x00, 0x00, 0x00, 0x00, 0x00, 0x00, 0x00, 0x00, 0x00, 0x00, 0x00, 0x00,
  0x00, 0x00, 0x00, 0x00, 0x00, 0x00, 0x00, 0x00, 0x00, 0x00, 0x00, 0x00,
  0x00, 0x00, 0x00, 0x00, 0x00, 0x00, 0x00, 0x00, 0x00, 0x00, 0x00, 0x00,
  0x00, 0x00, 0x00, 0x00, 0x00, 0x00, 0x00, 0x00, 0x00, 0x00, 0x00, 0x00,
  0x00, 0x00, 0x00, 0x00, 0x00, 0x00, 0x00, 0x00, 0x00, 0x00, 0x00, 0x00,
  0x00, 0x00, 0x00, 0x00, 0x00, 0x00, 0x00, 0x00, 0x00, 0x00, 0x00, 0x00,
  0x00, 0x00, 0x00, 0x00, 0x00, 0x00, 0x00, 0x00, 0x00, 0x00, 0x00, 0x00,
  0x00, 0x00, 0x00, 0x00, 0x00, 0x00, 0x00, 0x00, 0x00, 0x00, 0x00, 0x00,
  0x00, 0x00, 0x00, 0x00, 0x00, 0x00, 0x00, 0x00, 0x00, 0x00, 0x00, 0x00,
  0x00, 0x00, 0x00, 0x00, 0x00, 0x00, 0x00, 0x00, 0x00, 0x00, 0x00, 0x00,
  0x40, 0x00, 0x00, 0x00, 0x05, 0xd9, 0x70, 0x37, 0x3f, 0x3e, 0xaa, 0x37,
  0x1c, 0x2e, 0x3d, 0x37, 0x85, 0xfa, 0x84, 0x37, 0x21, 0xdf, 0x91, 0x37,
  0x4a, 0x13, 0xb1, 0x37, 0xa0, 0x3f, 0xca, 0x37, 0xd1, 0x16, 0xe0, 0x37,
  0x0c, 0xa3, 0xdf, 0x37, 0x34, 0x04, 0xb2, 0x37, 0x1e, 0x8f, 0xb1, 0x37,
  0x0c, 0xe0, 0x9a, 0x37, 0xb2, 0xef, 0xb6, 0x37, 0x6a, 0x5f, 0x66, 0x37,
  0x7d, 0x13, 0xaa, 0x37, 0x8f, 0xa0, 0x9e, 0x37, 0x23, 0x10, 0xb6, 0x37,
  0xb9, 0x69, 0x94, 0x37, 0x3b, 0xc6, 0xb7, 0x37, 0x6e, 0xf4, 0x86, 0x37,
  0x1a, 0x62, 0xc6, 0x37, 0xb0, 0x76, 0xdb, 0x37, 0x34, 0x06, 0xc7, 0x37,
  0x12, 0xf9, 0xf6, 0x37, 0x21, 0x15, 0xa3, 0x37, 0x72, 0x75, 0x8d, 0x37,
  0xa1, 0x38, 0x86, 0x37, 0x3a, 0xad, 0xa7, 0x37, 0x89, 0x19, 0xbe, 0x37,
  0xd6, 0x27, 0xa2, 0x37, 0x9c, 0xdc, 0xd7, 0x37, 0x93, 0x1c, 0xe4, 0x37,
  0xe0, 0xad, 0xd5, 0x37, 0x6b, 0x2e, 0xbe, 0x37, 0x04, 0xae, 0xd2, 0x37,
  0xd4, 0xfd, 0xd1, 0x37, 0x4f, 0xa4, 0x8c, 0x37, 0xaf, 0x86, 0x83, 0x37,
  0x70, 0xc8, 0xa5, 0x37, 0xa4, 0x76, 0x79, 0x37, 0xdf, 0x1d, 0x8e, 0x37,
  0x55, 0x8f, 0xc3, 0x37, 0x04, 0xf9, 0xfa, 0x36, 0xab, 0xf5, 0xa5, 0x37,
  0xb6, 0x99, 0xe2, 0x37, 0xce, 0xbc, 0x9d, 0x37, 0x10, 0x32, 0x91, 0x37,
  0x7b, 0x43, 0x90, 0x37, 0xe5, 0x01, 0xa3, 0x37, 0x3a, 0x2f, 0xd1, 0x37,
  0x28, 0xcc, 0x81, 0x37, 0x4e, 0x60, 0x9c, 0x37, 0x89, 0xdc, 0xb2, 0x37,
  0xde, 0xce, 0xb2, 0x37, 0x68, 0x92, 0xaf, 0x37, 0x73, 0x09, 0x1a, 0x38,
  0x03, 0x49, 0x96, 0x37, 0x87, 0x03, 0xa8, 0x37, 0xd1, 0x55, 0x86, 0x37,
  0x62, 0xeb, 0x96, 0x37, 0x8d, 0x17, 0xc1, 0x37, 0xb9, 0xef, 0x89, 0x37,
  0x1a, 0x68, 0xb7, 0x37, 0xc7, 0x2e, 0xb8, 0x37, 0x12, 0x00, 0x00, 0x00,
  0x74, 0x66, 0x6c, 0x2e, 0x70, 0x73, 0x65, 0x75, 0x64, 0x6f, 0x5f, 0x71,
  0x63, 0x6f, 0x6e, 0x73, 0x74, 0x34, 0x00, 0x00, 0x01, 0x00, 0x00, 0x00,
  0x40, 0x00, 0x00, 0x00, 0xf6, 0xf8, 0xff, 0xff, 0x00, 0x00, 0x00, 0x01,
  0x14, 0x00, 0x00, 0x00, 0x28, 0x03, 0x00, 0x00, 0x05, 0x00, 0x00, 0x00,
  0x00, 0x00, 0x00, 0x09, 0x34, 0x03, 0x00, 0x00, 0x5c, 0xf8, 0xff, 0xff,
  0x08, 0x00, 0x00, 0x00, 0x0c, 0x02, 0x00, 0x00, 0x40, 0x00, 0x00, 0x00,
  0x00, 0x00, 0x00, 0x00, 0x00, 0x00, 0x00, 0x00, 0x00, 0x00, 0x00, 0x00,
  0x00, 0x00, 0x00, 0x00, 0x00, 0x00, 0x00, 0x00, 0x00, 0x00, 0x00, 0x00,
  0x00, 0x00, 0x00, 0x00, 0x00, 0x00, 0x00, 0x00, 0x00, 0x00, 0x00, 0x00,
  0x00, 0x00, 0x00, 0x00, 0x00, 0x00, 0x00, 0x00, 0x00, 0x00, 0x00, 0x00,
  0x00, 0x00, 0x00, 0x00, 0x00, 0x00, 0x00, 0x00, 0x00, 0x00, 0x00, 0x00,
  0x00, 0x00, 0x00, 0x00, 0x00, 0x00, 0x00, 0x00, 0x00, 0x00, 0x00, 0x00,
  0x00, 0x00, 0x00, 0x00, 0x00, 0x00, 0x00, 0x00, 0x00, 0x00, 0x00, 0x00,
  0x00, 0x00, 0x00, 0x00, 0x00, 0x00, 0x00, 0x00, 0x00, 0x00, 0x00, 0x00,
  0x00, 0x00, 0x00, 0x00, 0x00, 0x00, 0x00, 0x00, 0x00, 0x00, 0x00, 0x00,
  0x00, 0x00, 0x00, 0x00, 0x00, 0x00, 0x00, 0x00, 0x00, 0x00, 0x00, 0x00,
  0x00, 0x00, 0x00, 0x00, 0x00, 0x00, 0x00, 0x00, 0x00, 0x00, 0x00, 0x00,
  0x00, 0x00, 0x00, 0x00, 0x00, 0x00, 0x00, 0x00, 0x00, 0x00, 0x00, 0x00,
  0x00, 0x00, 0x00, 0x00, 0x00, 0x00, 0x00, 0x00, 0x00, 0x00, 0x00, 0x00,
  0x00, 0x00, 0x00, 0x00, 0x00, 0x00, 0x00, 0x00, 0x00, 0x00, 0x00, 0x00,
  0x00, 0x00, 0x00, 0x00, 0x00, 0x00, 0x00, 0x00, 0x00, 0x00, 0x00, 0x00,
  0x00, 0x00, 0x00, 0x00, 0x00, 0x00, 0x00, 0x00, 0x00, 0x00, 0x00, 0x00,
  0x00, 0x00, 0x00, 0x00, 0x00, 0x00, 0x00, 0x00, 0x00, 0x00, 0x00, 0x00,
  0x00, 0x00, 0x00, 0x00, 0x00, 0x00, 0x00, 0x00, 0x00, 0x00, 0x00, 0x00,
  0x00, 0x00, 0x00, 0x00, 0x00, 0x00, 0x00, 0x00, 0x00, 0x00, 0x00, 0x00,
  0x00, 0x00, 0x00, 0x00, 0x00, 0x00, 0x00, 0x00, 0x00, 0x00, 0x00, 0x00,
  0x00, 0x00, 0x00, 0x00, 0x00, 0x00, 0x00, 0x00, 0x00, 0x00, 0x00, 0x00,
  0x00, 0x00, 0x00, 0x00, 0x00, 0x00, 0x00, 0x00, 0x00, 0x00, 0x00, 0x00,
  0x00, 0x00, 0x00, 0x00, 0x00, 0x00, 0x00, 0x00, 0x00, 0x00, 0x00, 0x00,
  0x00, 0x00, 0x00, 0x00, 0x00, 0x00, 0x00, 0x00, 0x00, 0x00, 0x00, 0x00,
  0x00, 0x00, 0x00, 0x00, 0x00, 0x00, 0x00, 0x00, 0x00, 0x00, 0x00, 0x00,
  0x00, 0x00, 0x00, 0x00, 0x00, 0x00, 0x00, 0x00, 0x00, 0x00, 0x00, 0x00,
  0x00, 0x00, 0x00, 0x00, 0x00, 0x00, 0x00, 0x00, 0x00, 0x00, 0x00, 0x00,
  0x00, 0x00, 0x00, 0x00, 0x00, 0x00, 0x00, 0x00, 0x00, 0x00, 0x00, 0x00,
  0x00, 0x00, 0x00, 0x00, 0x00, 0x00, 0x00, 0x00, 0x00, 0x00, 0x00, 0x00,
  0x00, 0x00, 0x00, 0x00, 0x00, 0x00, 0x00, 0x00, 0x00, 0x00, 0x00, 0x00,
  0x00, 0x00, 0x00, 0x00, 0x00, 0x00, 0x00, 0x00, 0x00, 0x00, 0x00, 0x00,
  0x00, 0x00, 0x00, 0x00, 0x00, 0x00, 0x00, 0x00, 0x00, 0x00, 0x00, 0x00,
  0x00, 0x00, 0x00, 0x00, 0x00, 0x00, 0x00, 0x00, 0x00, 0x00, 0x00, 0x00,
  0x00, 0x00, 0x00, 0x00, 0x00, 0x00, 0x00, 0x00, 0x00, 0x00, 0x00, 0x00,
  0x00, 0x00, 0x00, 0x00, 0x00, 0x00, 0x00, 0x00, 0x00, 0x00, 0x00, 0x00,
  0x00, 0x00, 0x00, 0x00, 0x00, 0x00, 0x00, 0x00, 0x00, 0x00, 0x00, 0x00,
  0x00, 0x00, 0x00, 0x00, 0x00, 0x00, 0x00, 0x00, 0x00, 0x00, 0x00, 0x00,
  0x00, 0x00, 0x00, 0x00, 0x00, 0x00, 0x00, 0x00, 0x00, 0x00, 0x00, 0x00,
  0x00, 0x00, 0x00, 0x00, 0x00, 0x00, 0x00, 0x00, 0x00, 0x00, 0x00, 0x00,
  0x00, 0x00, 0x00, 0x00, 0x00, 0x00, 0x00, 0x00, 0x00, 0x00, 0x00, 0x00,
  0x00, 0x00, 0x00, 0x00, 0x00, 0x00, 0x00, 0x00, 0x00, 0x00, 0x00, 0x00,
  0x00, 0x00, 0x00, 0x00, 0x00, 0x00, 0x00, 0x00, 0x00, 0x00, 0x00, 0x00,
  0x00, 0x00, 0x00, 0x00, 0x00, 0x00, 0x00, 0x00, 0x00, 0x00, 0x00, 0x00,
  0x40, 0x00, 0x00, 0x00, 0x0f, 0x44, 0xa5, 0x3c, 0xa8, 0x34, 0xce, 0x3c,
  0x7f, 0x73, 0xcc, 0x3c, 0x38, 0x9f, 0x9d, 0x3c, 0x27, 0xe6, 0x94, 0x3c,
  0xd2, 0x9a, 0x9a, 0x3c, 0x25, 0x88, 0x8c, 0x3c, 0x2b, 0xaa, 0xc3, 0x3c,
  0x5c, 0xae, 0x8d, 0x3c, 0xd0, 0xa9, 0x18, 0x3d, 0xf4, 0xe7, 0x0f, 0x3d,
  0xeb, 0x59, 0xb2, 0x3c, 0x10, 0xc9, 0x66, 0x3c, 0x31, 0x14, 0x97, 0x3c,
  0xd0, 0x40, 0xab, 0x3c, 0x83, 0x50, 0xc7, 0x3c, 0xa2, 0xa0, 0xe5, 0x3c,
  0x7d, 0x12, 0x92, 0x3c, 0x92, 0x4e, 0xc1, 0x3c, 0x7b, 0x1b, 0x32, 0x3d,
  0xbe, 0x0c, 0x9b, 0x3c, 0x23, 0x67, 0x81, 0x3c, 0x63, 0x09, 0xc3, 0x3c,
  0x88, 0x21, 0x91, 0x3c, 0x00, 0x37, 0x02, 0x3d, 0x33, 0x02, 0xea, 0x3c,
  0x0b, 0x36, 0xe9, 0x3c, 0x71, 0x49, 0x98, 0x3c, 0x84, 0xe1, 0x1c, 0x3d,
  0x38, 0xdf, 0xf4, 0x3c, 0x6d, 0x3c, 0x8a, 0x3d, 0x8f, 0x9e, 0x85, 0x3c,
  0x0d, 0x22, 0x90, 0x3d, 0x2e, 0xf6, 0x97, 0x3c, 0xfe, 0x92, 0xbc, 0x3c,
  0x81, 0xea, 0xac, 0x3c, 0x21, 0x02, 0xa5, 0x3c, 0xd0, 0x4c, 0x52, 0x3d,
  0xeb, 0x7d, 0xba, 0x3c, 0x0b, 0xdf, 0x98, 0x3c, 0x2f, 0xcc, 0xaa, 0x3c,
  0xe8, 0x4c, 0xd3, 0x3c, 0xae, 0x29, 0x8f, 0x3c, 0x0b, 0x69, 0xc7, 0x3c,
  0x69, 0x87, 0x92, 0x3c, 0x47, 0xba, 0xb2, 0x3c, 0x81, 0x17, 0xac, 0x3c,
  0xc7, 0xff, 0xe3, 0x3c, 0x41, 0x0d, 0xfd, 0x3c, 0x1b, 0x70, 0xec, 0x3c,
  0xe6, 0x6f, 0xcc, 0x3c, 0x5d, 0xba, 0xc6, 0x3c, 0x45, 0x25, 0xdc, 0x3c,
  0xfe, 0xe1, 0xd6, 0x3c, 0xf6, 0xe7, 0x96, 0x3c, 0xa1, 0x5a, 0xa3, 0x3c,
  0xb7, 0x2e, 0x84, 0x3c, 0x68, 0x6e, 0xf9, 0x3c, 0x4f, 0x28, 0x3a, 0x3d,
  0x03, 0x5c, 0x1a, 0x3d, 0xb3, 0x9b, 0xd3, 0x3c, 0x70, 0xae, 0xa8, 0x3c,
  0xde, 0x5c, 0xc6, 0x3c, 0x33, 0x35, 0x94, 0x3c, 0x12, 0x00, 0x00, 0x00,
  0x74, 0x66, 0x6c, 0x2e, 0x70, 0x73, 0x65, 0x75, 0x64, 0x6f, 0x5f, 0x71,
  0x63, 0x6f, 0x6e, 0x73, 0x74, 0x33, 0x00, 0x00, 0x02, 0x00, 0x00, 0x00,
  0x40, 0x00, 0x00, 0x00, 0x40, 0x00, 0x00, 0x00, 0x4e, 0xfc, 0xff, 0xff,
  0x00, 0x00, 0x00, 0x01, 0x14, 0x00, 0x00, 0x00, 0x24, 0x03, 0x00, 0x00,
  0x04, 0x00, 0x00, 0x00, 0x00, 0x00, 0x00, 0x02, 0x30, 0x03, 0x00, 0x00,
  0xb4, 0xfb, 0xff, 0xff, 0x08, 0x00, 0x00, 0x00, 0x08, 0x02, 0x00, 0x00,
  0x40, 0x00, 0x00, 0x00, 0x00, 0x00, 0x00, 0x00, 0x00, 0x00, 0x00, 0x00,
  0x00, 0x00, 0x00, 0x00, 0x00, 0x00, 0x00, 0x00, 0x00, 0x00, 0x00, 0x00,
  0x00, 0x00, 0x00, 0x00, 0x00, 0x00, 0x00, 0x00, 0x00, 0x00, 0x00, 0x00,
  0x00, 0x00, 0x00, 0x00, 0x00, 0x00, 0x00, 0x00, 0x00, 0x00, 0x00, 0x00,
  0x00, 0x00, 0x00, 0x00, 0x00, 0x00, 0x00, 0x00, 0x00, 0x00, 0x00, 0x00,
  0x00, 0x00, 0x00, 0x00, 0x00, 0x00, 0x00, 0x00, 0x00, 0x00, 0x00, 0x00,
  0x00, 0x00, 0x00, 0x00, 0x00, 0x00, 0x00, 0x00, 0x00, 0x00, 0x00, 0x00,
  0x00, 0x00, 0x00, 0x00, 0x00, 0x00, 0x00, 0x00, 0x00, 0x00, 0x00, 0x00,
  0x00, 0x00, 0x00, 0x00, 0x00, 0x00, 0x00, 0x00, 0x00, 0x00, 0x00, 0x00,
  0x00, 0x00, 0x00, 0x00, 0x00, 0x00, 0x00, 0x00, 0x00, 0x00, 0x00, 0x00,
  0x00, 0x00, 0x00, 0x00, 0x00, 0x00, 0x00, 0x00, 0x00, 0x00, 0x00, 0x00,
  0x00, 0x00, 0x00, 0x00, 0x00, 0x00, 0x00, 0x00, 0x00, 0x00, 0x00, 0x00,
  0x00, 0x00, 0x00, 0x00, 0x00, 0x00, 0x00, 0x00, 0x00, 0x00, 0x00, 0x00,
  0x00, 0x00, 0x00, 0x00, 0x00, 0x00, 0x00, 0x00, 0x00, 0x00, 0x00, 0x00,
  0x00, 0x00, 0x00, 0x00, 0x00, 0x00, 0x00, 0x00, 0x00, 0x00, 0x00, 0x00,
  0x00, 0x00, 0x00, 0x00, 0x00, 0x00, 0x00, 0x00, 0x00, 0x00, 0x00, 0x00,
  0x00, 0x00, 0x00, 0x00, 0x00, 0x00, 0x00, 0x00, 0x00, 0x00, 0x00, 0x00,
  0x00, 0x00, 0x00, 0x00, 0x00, 0x00, 0x00, 0x00, 0x00, 0x00, 0x00, 0x00,
  0x00, 0x00, 0x00, 0x00, 0x00, 0x00, 0x00, 0x00, 0x00, 0x00, 0x00, 0x00,
  0x00, 0x00, 0x00, 0x00, 0x00, 0x00, 0x00, 0x00, 0x00, 0x00, 0x00, 0x00,
  0x00, 0x00, 0x00, 0x00, 0x00, 0x00, 0x00, 0x00, 0x00, 0x00, 0x00, 0x00,
  0x00, 0x00, 0x00, 0x00, 0x00, 0x00, 0x00, 0x00, 0x00, 0x00, 0x00, 0x00,
  0x00, 0x00, 0x00, 0x00, 0x00, 0x00, 0x00, 0x00, 0x00, 0x00, 0x00, 0x00,
  0x00, 0x00, 0x00, 0x00, 0x00, 0x00, 0x00, 0x00, 0x00, 0x00, 0x00, 0x00,
  0x00, 0x00, 0x00, 0x00, 0x00, 0x00, 0x00, 0x00, 0x00, 0x00, 0x00, 0x00,
  0x00, 0x00, 0x00, 0x00, 0x00, 0x00, 0x00, 0x00, 0x00, 0x00, 0x00, 0x00,
  0x00, 0x00, 0x00, 0x00, 0x00, 0x00, 0x00, 0x00, 0x00, 0x00, 0x00, 0x00,
  0x00, 0x00, 0x00, 0x00, 0x00, 0x00, 0x00, 0x00, 0x00, 0x00, 0x00, 0x00,
  0x00, 0x00, 0x00, 0x00, 0x00, 0x00, 0x00, 0x00, 0x00, 0x00, 0x00, 0x00,
  0x00, 0x00, 0x00, 0x00, 0x00, 0x00, 0x00, 0x00, 0x00, 0x00, 0x00, 0x00,
  0x00, 0x00, 0x00, 0x00, 0x00, 0x00, 0x00, 0x00, 0x00, 0x00, 0x00, 0x00,
  0x00, 0x00, 0x00, 0x00, 0x00, 0x00, 0x00, 0x00, 0x00, 0x00, 0x00, 0x00,
  0x00, 0x00, 0x00, 0x00, 0x00, 0x00, 0x00, 0x00, 0x00, 0x00, 0x00, 0x00,
  0x00, 0x00, 0x00, 0x00, 0x00, 0x00, 0x00, 0x00, 0x00, 0x00, 0x00, 0x00,
  0x00, 0x00, 0x00, 0x00, 0x00, 0x00, 0x00, 0x00, 0x00, 0x00, 0x00, 0x00,
  0x00, 0x00, 0x00, 0x00, 0x00, 0x00, 0x00, 0x00, 0x00, 0x00, 0x00, 0x00,
  0x00, 0x00, 0x00, 0x00, 0x00, 0x00, 0x00, 0x00, 0x00, 0x00, 0x00, 0x00,
  0x00, 0x00, 0x00, 0x00, 0x00, 0x00, 0x00, 0x00, 0x00, 0x00, 0x00, 0x00,
  0x00, 0x00, 0x00, 0x00, 0x00, 0x00, 0x00, 0x00, 0x00, 0x00, 0x00, 0x00,
  0x00, 0x00, 0x00, 0x00, 0x00, 0x00, 0x00, 0x00, 0x00, 0x00, 0x00, 0x00,
  0x00, 0x00, 0x00, 0x00, 0x00, 0x00, 0x00, 0x00, 0x00, 0x00, 0x00, 0x00,
  0x00, 0x00, 0x00, 0x00, 0x00, 0x00, 0x00, 0x00, 0x00, 0x00, 0x00, 0x00,
  0x00, 0x00, 0x00, 0x00, 0x00, 0x00, 0x00, 0x00, 0x00, 0x00, 0x00, 0x00,
  0x40, 0x00, 0x00, 0x00, 0x51, 0x38, 0xca, 0x38, 0x6c, 0x50, 0xfc, 0x38,
  0xd4, 0x2a, 0xfa, 0x38, 0xec, 0xdd, 0xc0, 0x38, 0x88, 0x31, 0xb6, 0x38,
  0xd0, 0x2c, 0xbd, 0x38, 0x90, 0xf4, 0xab, 0x38, 0x8a, 0x6a, 0xef, 0x38,
  0x90, 0x5c, 0xad, 0x38, 0xac, 0xcc, 0x3a, 0x39, 0x85, 0x15, 0x30, 0x39,
  0x38, 0x3b, 0xda, 0x38, 0xeb, 0x31, 0x8d, 0x38, 0x5a, 0xdc, 0xb8, 0x38,
  0xcd, 0x8b, 0xd1, 0x38, 0xcf, 0xe1, 0xf3, 0x38, 0x90, 0x7c, 0x0c, 0x39,
  0x0e, 0xbc, 0xb2, 0x38, 0xfa, 0x87, 0xec, 0x38, 0xd2, 0xee, 0x59, 0x39,
  0x35, 0xb8, 0xbd, 0x38, 0x81, 0x56, 0x9e, 0x38, 0xcf, 0xa5, 0xee, 0x38,
  0x38, 0x95, 0xb1, 0x38, 0xd9, 0x54, 0x1f, 0x39, 0xbd, 0x2a, 0x0f, 0x39,
  0xd6, 0xad, 0x0e, 0x39, 0xc0, 0x56, 0xba, 0x38, 0xcd, 0xf5, 0x3f, 0x39,
  0x2c, 0xd0, 0x15, 0x39, 0x6d, 0x25, 0xa9, 0x39, 0x4a, 0x7f, 0xa3, 0x38,
  0x9c, 0x5c, 0xb0, 0x39, 0xdf, 0xf0, 0xb9, 0x38, 0x7c, 0xbd, 0xe6, 0x38,
  0xae, 0x94, 0xd3, 0x38, 0xa5, 0xe7, 0xc9, 0x38, 0x7a, 0xa9, 0x80, 0x39,
  0x36, 0x31, 0xe4, 0x38, 0xce, 0x0d, 0xbb, 0x38, 0x18, 0xfd, 0xd0, 0x38,
  0x27, 0x46, 0x01, 0x39, 0xb4, 0x2c, 0xaf, 0x38, 0xd3, 0xff, 0xf3, 0x38,
  0x1e, 0x4b, 0xb3, 0x38, 0x20, 0xb1, 0xda, 0x38, 0x80, 0x92, 0xd2, 0x38,
  0x87, 0x7d, 0x0b, 0x39, 0x4f, 0xd1, 0x1a, 0x39, 0x39, 0xa7, 0x10, 0x39,
  0x6d, 0x26, 0xfa, 0x38, 0x16, 0x2a, 0xf3, 0x38, 0x7f, 0xaf, 0x06, 0x39,
  0x3b, 0x77, 0x03, 0x39, 0x3b, 0xa6, 0xb8, 0x38, 0x73, 0xe1, 0xc7, 0x38,
  0x32, 0xbd, 0xa1, 0x38, 0x43, 0x9a, 0x18, 0x39, 0x76, 0xc8, 0x63, 0x39,
  0xf5, 0xdf, 0x3c, 0x39, 0x5c, 0x76, 0x01, 0x39, 0x36, 0x66, 0xce, 0x38,
  0xaf, 0xb7, 0xf2, 0x38, 0x03, 0x59, 0xb5, 0x38, 0x12, 0x00, 0x00, 0x00,
  0x74, 0x66, 0x6c, 0x2e, 0x70, 0x73, 0x65, 0x75, 0x64, 0x6f, 0x5f, 0x71,
  0x63, 0x6f, 0x6e, 0x73, 0x74, 0x32, 0x00, 0x00, 0x01, 0x00, 0x00, 0x00,
  0x40, 0x00, 0x00, 0x00, 0x9e, 0xff, 0xff, 0xff, 0x00, 0x00, 0x00, 0x01,
  0x14, 0x00, 0x00, 0x00, 0x30, 0x00, 0x00, 0x00, 0x03, 0x00, 0x00, 0x00,
  0x00, 0x00, 0x00, 0x09, 0x3c, 0x00, 0x00, 0x00, 0x04, 0xff, 0xff, 0xff,
  0x08, 0x00, 0x00, 0x00, 0x10, 0x00, 0x00, 0x00, 0x01, 0x00, 0x00, 0x00,
  0x00, 0x00, 0x00, 0x00, 0x00, 0x00, 0x00, 0x00, 0x01, 0x00, 0x00, 0x00,
  0x94, 0xba, 0x19, 0x3a, 0x12, 0x00, 0x00, 0x00, 0x74, 0x66, 0x6c, 0x2e,
  0x70, 0x73, 0x65, 0x75, 0x64, 0x6f, 0x5f, 0x71, 0x63, 0x6f, 0x6e, 0x73,
  0x74, 0x31, 0x00, 0x00, 0x02, 0x00, 0x00, 0x00, 0x01, 0x00, 0x00, 0x00,
  0x40, 0x00, 0x00, 0x00, 0x00, 0x00, 0x16, 0x00, 0x1c, 0x00, 0x18, 0x00,
  0x17, 0x00, 0x10, 0x00, 0x0c, 0x00, 0x08, 0x00, 0x00, 0x00, 0x00, 0x00,
  0x00, 0x00, 0x07, 0x00, 0x16, 0x00, 0x00, 0x00, 0x00, 0x00, 0x00, 0x01,
  0x14, 0x00, 0x00, 0x00, 0x30, 0x00, 0x00, 0x00, 0x02, 0x00, 0x00, 0x00,
  0x00, 0x00, 0x00, 0x02, 0x3c, 0x00, 0x00, 0x00, 0x7c, 0xff, 0xff, 0xff,
  0x08, 0x00, 0x00, 0x00, 0x10, 0x00, 0x00, 0x00, 0x01, 0x00, 0x00, 0x00,
  0x00, 0x00, 0x00, 0x00, 0x00, 0x00, 0x00, 0x00, 0x01, 0x00, 0x00, 0x00,
  0x5c, 0x42, 0x02, 0x38, 0x11, 0x00, 0x00, 0x00, 0x74, 0x66, 0x6c, 0x2e,
  0x70, 0x73, 0x65, 0x75, 0x64, 0x6f, 0x5f, 0x71, 0x63, 0x6f, 0x6e, 0x73,
  0x74, 0x00, 0x00, 0x00, 0x01, 0x00, 0x00, 0x00, 0x01, 0x00, 0x00, 0x00,
  0x00, 0x00, 0x16, 0x00, 0x20, 0x00, 0x1c, 0x00, 0x1b, 0x00, 0x14, 0x00,
  0x10, 0x00, 0x0c, 0x00, 0x00, 0x00, 0x00, 0x00, 0x08, 0x00, 0x07, 0x00,
  0x16, 0x00, 0x00, 0x00, 0x00, 0x00, 0x00, 0x01, 0x18, 0x00, 0x00, 0x00,
  0x2c, 0x00, 0x00, 0x00, 0x4c, 0x00, 0x00, 0x00, 0x01, 0x00, 0x00, 0x00,
  0x00, 0x00, 0x00, 0x09, 0x64, 0x00, 0x00, 0x00, 0x02, 0x00, 0x00, 0x00,
  0xff, 0xff, 0xff, 0xff, 0x07, 0x00, 0x00, 0x00, 0x0c, 0x00, 0x0c, 0x00,
  0x00, 0x00, 0x00, 0x00, 0x08, 0x00, 0x04, 0x00, 0x0c, 0x00, 0x00, 0x00,
  0x08, 0x00, 0x00, 0x00, 0x14, 0x00, 0x00, 0x00, 0x01, 0x00, 0x00, 0x00,
  0x00, 0x00, 0x00, 0x00, 0x00, 0x00, 0x00, 0x00, 0x00, 0x00, 0x00, 0x00,
  0x01, 0x00, 0x00, 0x00, 0xaf, 0x2f, 0x00, 0x3c, 0x1f, 0x00, 0x00, 0x00,
  0x73, 0x65, 0x72, 0x76, 0x69, 0x6e, 0x67, 0x5f, 0x64, 0x65, 0x66, 0x61,
  0x75, 0x6c, 0x74, 0x5f, 0x69, 0x6e, 0x70, 0x75, 0x74, 0x5f, 0x6c, 0x61,
  0x79, 0x65, 0x72, 0x5f, 0x37, 0x3a, 0x30, 0x00, 0x02, 0x00, 0x00, 0x00,
  0x01, 0x00, 0x00, 0x00, 0x07, 0x00, 0x00, 0x00, 0x01, 0x00, 0x00, 0x00,
  0x10, 0x00, 0x00, 0x00, 0x0c, 0x00, 0x10, 0x00, 0x0f, 0x00, 0x00, 0x00,
  0x08, 0x00, 0x04, 0x00, 0x0c, 0x00, 0x00, 0x00, 0x09, 0x00, 0x00, 0x00,
  0x04, 0x00, 0x00, 0x00, 0x00, 0x00, 0x00, 0x09
};
unsigned int sine_model_data_tflite_len = 10544;
